{
  "version": "1.0",
  "truncation": null,
  "padding": null,
  "added_tokens": [
    {
      "id": 0,
      "content": "<pad>",
      "single_word": false,
      "lstrip": false,
      "rstrip": false,
      "normalized": false,
      "special": true
    },
    {
      "id": 1,
      "content": "</s>",
      "single_word": false,
      "lstrip": false,
      "rstrip": false,
      "normalized": false,
      "special": true
    },
    {
      "id": 2,
      "content": "<unk>",
      "single_word": false,
      "lstrip": false,
      "rstrip": false,
      "normalized": false,
      "special": true
    },
    {
      "id": 32003,
      "content": "<extra_id_0>",
      "single_word": false,
      "lstrip": false,
      "rstrip": false,
      "normalized": false,
      "special": true
    },
    {
      "id": 32004,
      "content": "<extra_id_1>",
      "single_word": false,
      "lstrip": false,
      "rstrip": false,
      "normalized": false,
      "special": true
    },
    {
      "id": 32005,
      "content": "<extra_id_2>",
      "single_word": false,
      "lstrip": false,
      "rstrip": false,
      "normalized": false,
      "special": true
    },
    {
      "id": 32006,
      "content": "<extra_id_3>",
      "single_word": false,
      "lstrip": false,
      "rstrip": false,
      "normalized": false,
      "special": true
    },
    {
      "id": 32007,
      "content": "<extra_id_4>",
      "single_word": false,
      "lstrip": false,
      "rstrip": false,
      "normalized": false,
      "special": true
    },
    {
      "id": 32008,
      "content": "<extra_id_5>",
      "single_word": false,
      "lstrip": false,
      "rstrip": false,
      "normalized": false,
      "special": true
    },
    {
      "id": 32009,
      "content": "<extra_id_6>",
      "single_word": false,
      "lstrip": false,
      "rstrip": false,
      "normalized": false,
      "special": true
    },
    {
      "id": 32010,
      "content": "<extra_id_7>",
      "single_word": false,
      "lstrip": false,
      "rstrip": false,
      "normalized": false,
      "special": true
    },
    {
      "id": 32011,
      "content": "<extra_id_8>",
      "single_word": false,
      "lstrip": false,
      "rstrip": false,
      "normalized": false,
      "special": true
    },
    {
      "id": 32012,
      "content": "<extra_id_9>",
      "single_word": false,
      "lstrip": false,
      "rstrip": false,
      "normalized": false,
      "special": true
    },
    {
      "id": 32013,
      "content": "<extra_id_10>",
      "single_word": false,
      "lstrip": false,
      "rstrip": false,
      "normalized": false,
      "special": true
    },
    {
      "id": 32014,
      "content": "<extra_id_11>",
      "single_word": false,
      "lstrip": false,
      "rstrip": false,
      "normalized": false,
      "special": true
    },
    {
      "id": 32015,
      "content": "<extra_id_12>",
      "single_word": false,
      "lstrip": false,
      "rstrip": false,
      "normalized": false,
      "special": true
    },
    {
      "id": 32016,
      "content": "<extra_id_13>",
      "single_word": false,
      "lstrip": false,
      "rstrip": false,
      "normalized": false,
      "special": true
    },
    {
      "id": 32017,
      "content": "<extra_id_14>",
      "single_word": false,
      "lstrip": false,
      "rstrip": false,
      "normalized": false,
      "special": true
    },
    {
      "id": 32018,
      "content": "<extra_id_15>",
      "single_word": false,
      "lstrip": false,
      "rstrip": false,
      "normalized": false,
      "special": true
    },
    {
      "id": 32019,
      "content": "<extra_id_16>",
      "single_word": false,
      "lstrip": false,
      "rstrip": false,
      "normalized": false,
      "special": true
    },
    {
      "id": 32020,
      "content": "<extra_id_17>",
      "single_word": false,
      "lstrip": false,
      "rstrip": false,
      "normalized": false,
      "special": true
    },
    {
      "id": 32021,
      "content": "<extra_id_18>",
      "single_word": false,
      "lstrip": false,
      "rstrip": false,
      "normalized": false,
      "special": true
    },
    {
      "id": 32022,
      "content": "<extra_id_19>",
      "single_word": false,
      "lstrip": false,
      "rstrip": false,
      "normalized": false,
      "special": true
    },
    {
      "id": 32023,
      "content": "<extra_id_20>",
      "single_word": false,
      "lstrip": false,
      "rstrip": false,
      "normalized": false,
      "special": true
    },
    {
      "id": 32024,
      "content": "<extra_id_21>",
      "single_word": false,
      "lstrip": false,
      "rstrip": false,
      "normalized": false,
      "special": true
    },
    {
      "id": 32025,
      "content": "<extra_id_22>",
      "single_word": false,
      "lstrip": false,
      "rstrip": false,
      "normalized": false,
      "special": true
    },
    {
      "id": 32026,
      "content": "<extra_id_23>",
      "single_word": false,
      "lstrip": false,
      "rstrip": false,
      "normalized": false,
      "special": true
    },
    {
      "id": 32027,
      "content": "<extra_id_24>",
      "single_word": false,
      "lstrip": false,
      "rstrip": false,
      "normalized": false,
      "special": true
    },
    {
      "id": 32028,
      "content": "<extra_id_25>",
      "single_word": false,
      "lstrip": false,
      "rstrip": false,
      "normalized": false,
      "special": true
    },
    {
      "id": 32029,
      "content": "<extra_id_26>",
      "single_word": false,
      "lstrip": false,
      "rstrip": false,
      "normalized": false,
      "special": true
    },
    {
      "id": 32030,
      "content": "<extra_id_27>",
      "single_word": false,
      "lstrip": false,
      "rstrip": false,
      "normalized": false,
      "special": true
    },
    {
      "id": 32031,
      "content": "<extra_id_28>",
      "single_word": false,
      "lstrip": false,
      "rstrip": false,
      "normalized": false,
      "special": true
    },
    {
      "id": 32032,
      "content": "<extra_id_29>",
      "single_word": false,
      "lstrip": false,
      "rstrip": false,
      "normalized": false,
      "special": true
    },
    {
      "id": 32033,
      "content": "<extra_id_30>",
      "single_word": false,
      "lstrip": false,
      "rstrip": false,
      "normalized": false,
      "special": true
    },
    {
      "id": 32034,
      "content": "<extra_id_31>",
      "single_word": false,
      "lstrip": false,
      "rstrip": false,
      "normalized": false,
      "special": true
    },
    {
      "id": 32035,
      "content": "<extra_id_32>",
      "single_word": false,
      "lstrip": false,
      "rstrip": false,
      "normalized": false,
      "special": true
    },
    {
      "id": 32036,
      "content": "<extra_id_33>",
      "single_word": false,
      "lstrip": false,
      "rstrip": false,
      "normalized": false,
      "special": true
    },
    {
      "id": 32037,
      "content": "<extra_id_34>",
      "single_word": false,
      "lstrip": false,
      "rstrip": false,
      "normalized": false,
      "special": true
    },
    {
      "id": 32038,
      "content": "<extra_id_35>",
      "single_word": false,
      "lstrip": false,
      "rstrip": false,
      "normalized": false,
      "special": true
    },
    {
      "id": 32039,
      "content": "<extra_id_36>",
      "single_word": false,
      "lstrip": false,
      "rstrip": false,
      "normalized": false,
      "special": true
    },
    {
      "id": 32040,
      "content": "<extra_id_37>",
      "single_word": false,
      "lstrip": false,
      "rstrip": false,
      "normalized": false,
      "special": true
    },
    {
      "id": 32041,
      "content": "<extra_id_38>",
      "single_word": false,
      "lstrip": false,
      "rstrip": false,
      "normalized": false,
      "special": true
    },
    {
      "id": 32042,
      "content": "<extra_id_39>",
      "single_word": false,
      "lstrip": false,
      "rstrip": false,
      "normalized": false,
      "special": true
    },
    {
      "id": 32043,
      "content": "<extra_id_40>",
      "single_word": false,
      "lstrip": false,
      "rstrip": false,
      "normalized": false,
      "special": true
    },
    {
      "id": 32044,
      "content": "<extra_id_41>",
      "single_word": false,
      "lstrip": false,
      "rstrip": false,
      "normalized": false,
      "special": true
    },
    {
      "id": 32045,
      "content": "<extra_id_42>",
      "single_word": false,
      "lstrip": false,
      "rstrip": false,
      "normalized": false,
      "special": true
    },
    {
      "id": 32046,
      "content": "<extra_id_43>",
      "single_word": false,
      "lstrip": false,
      "rstrip": false,
      "normalized": false,
      "special": true
    },
    {
      "id": 32047,
      "content": "<extra_id_44>",
      "single_word": false,
      "lstrip": false,
      "rstrip": false,
      "normalized": false,
      "special": true
    },
    {
      "id": 32048,
      "content": "<extra_id_45>",
      "single_word": false,
      "lstrip": false,
      "rstrip": false,
      "normalized": false,
      "special": true
    },
    {
      "id": 32049,
      "content": "<extra_id_46>",
      "single_word": false,
      "lstrip": false,
      "rstrip": false,
      "normalized": false,
      "special": true
    },
    {
      "id": 32050,
      "content": "<extra_id_47>",
      "single_word": false,
      "lstrip": false,
      "rstrip": false,
      "normalized": false,
      "special": true
    },
    {
      "id": 32051,
      "content": "<extra_id_48>",
      "single_word": false,
      "lstrip": false,
      "rstrip": false,
      "normalized": false,
      "special": true
    },
    {
      "id": 32052,
      "content": "<extra_id_49>",
      "single_word": false,
      "lstrip": false,
      "rstrip": false,
      "normalized": false,
      "special": true
    },
    {
      "id": 32053,
      "content": "<extra_id_50>",
      "single_word": false,
      "lstrip": false,
      "rstrip": false,
      "normalized": false,
      "special": true
    },
    {
      "id": 32054,
      "content": "<extra_id_51>",
      "single_word": false,
      "lstrip": false,
      "rstrip": false,
      "normalized": false,
      "special": true
    },
    {
      "id": 32055,
      "content": "<extra_id_52>",
      "single_word": false,
      "lstrip": false,
      "rstrip": false,
      "normalized": false,
      "special": true
    },
    {
      "id": 32056,
      "content": "<extra_id_53>",
      "single_word": false,
      "lstrip": false,
      "rstrip": false,
      "normalized": false,
      "special": true
    },
    {
      "id": 32057,
      "content": "<extra_id_54>",
      "single_word": false,
      "lstrip": false,
      "rstrip": false,
      "normalized": false,
      "special": true
    },
    {
      "id": 32058,
      "content": "<extra_id_55>",
      "single_word": false,
      "lstrip": false,
      "rstrip": false,
      "normalized": false,
      "special": true
    },
    {
      "id": 32059,
      "content": "<extra_id_56>",
      "single_word": false,
      "lstrip": false,
      "rstrip": false,
      "normalized": false,
      "special": true
    },
    {
      "id": 32060,
      "content": "<extra_id_57>",
      "single_word": false,
      "lstrip": false,
      "rstrip": false,
      "normalized": false,
      "special": true
    },
    {
      "id": 32061,
      "content": "<extra_id_58>",
      "single_word": false,
      "lstrip": false,
      "rstrip": false,
      "normalized": false,
      "special": true
    },
    {
      "id": 32062,
      "content": "<extra_id_59>",
      "single_word": false,
      "lstrip": false,
      "rstrip": false,
      "normalized": false,
      "special": true
    },
    {
      "id": 32063,
      "content": "<extra_id_60>",
      "single_word": false,
      "lstrip": false,
      "rstrip": false,
      "normalized": false,
      "special": true
    },
    {
      "id": 32064,
      "content": "<extra_id_61>",
      "single_word": false,
      "lstrip": false,
      "rstrip": false,
      "normalized": false,
      "special": true
    },
    {
      "id": 32065,
      "content": "<extra_id_62>",
      "single_word": false,
      "lstrip": false,
      "rstrip": false,
      "normalized": false,
      "special": true
    },
    {
      "id": 32066,
      "content": "<extra_id_63>",
      "single_word": false,
      "lstrip": false,
      "rstrip": false,
      "normalized": false,
      "special": true
    },
    {
      "id": 32067,
      "content": "<extra_id_64>",
      "single_word": false,
      "lstrip": false,
      "rstrip": false,
      "normalized": false,
      "special": true
    },
    {
      "id": 32068,
      "content": "<extra_id_65>",
      "single_word": false,
      "lstrip": false,
      "rstrip": false,
      "normalized": false,
      "special": true
    },
    {
      "id": 32069,
      "content": "<extra_id_66>",
      "single_word": false,
      "lstrip": false,
      "rstrip": false,
      "normalized": false,
      "special": true
    },
    {
      "id": 32070,
      "content": "<extra_id_67>",
      "single_word": false,
      "lstrip": false,
      "rstrip": false,
      "normalized": false,
      "special": true
    },
    {
      "id": 32071,
      "content": "<extra_id_68>",
      "single_word": false,
      "lstrip": false,
      "rstrip": false,
      "normalized": false,
      "special": true
    },
    {
      "id": 32072,
      "content": "<extra_id_69>",
      "single_word": false,
      "lstrip": false,
      "rstrip": false,
      "normalized": false,
      "special": true
    },
    {
      "id": 32073,
      "content": "<extra_id_70>",
      "single_word": false,
      "lstrip": false,
      "rstrip": false,
      "normalized": false,
      "special": true
    },
    {
      "id": 32074,
      "content": "<extra_id_71>",
      "single_word": false,
      "lstrip": false,
      "rstrip": false,
      "normalized": false,
      "special": true
    },
    {
      "id": 32075,
      "content": "<extra_id_72>",
      "single_word": false,
      "lstrip": false,
      "rstrip": false,
      "normalized": false,
      "special": true
    },
    {
      "id": 32076,
      "content": "<extra_id_73>",
      "single_word": false,
      "lstrip": false,
      "rstrip": false,
      "normalized": false,
      "special": true
    },
    {
      "id": 32077,
      "content": "<extra_id_74>",
      "single_word": false,
      "lstrip": false,
      "rstrip": false,
      "normalized": false,
      "special": true
    },
    {
      "id": 32078,
      "content": "<extra_id_75>",
      "single_word": false,
      "lstrip": false,
      "rstrip": false,
      "normalized": false,
      "special": true
    },
    {
      "id": 32079,
      "content": "<extra_id_76>",
      "single_word": false,
      "lstrip": false,
      "rstrip": false,
      "normalized": false,
      "special": true
    },
    {
      "id": 32080,
      "content": "<extra_id_77>",
      "single_word": false,
      "lstrip": false,
      "rstrip": false,
      "normalized": false,
      "special": true
    },
    {
      "id": 32081,
      "content": "<extra_id_78>",
      "single_word": false,
      "lstrip": false,
      "rstrip": false,
      "normalized": false,
      "special": true
    },
    {
      "id": 32082,
      "content": "<extra_id_79>",
      "single_word": false,
      "lstrip": false,
      "rstrip": false,
      "normalized": false,
      "special": true
    },
    {
      "id": 32083,
      "content": "<extra_id_80>",
      "single_word": false,
      "lstrip": false,
      "rstrip": false,
      "normalized": false,
      "special": true
    },
    {
      "id": 32084,
      "content": "<extra_id_81>",
      "single_word": false,
      "lstrip": false,
      "rstrip": false,
      "normalized": false,
      "special": true
    },
    {
      "id": 32085,
      "content": "<extra_id_82>",
      "single_word": false,
      "lstrip": false,
      "rstrip": false,
      "normalized": false,
      "special": true
    },
    {
      "id": 32086,
      "content": "<extra_id_83>",
      "single_word": false,
      "lstrip": false,
      "rstrip": false,
      "normalized": false,
      "special": true
    },
    {
      "id": 32087,
      "content": "<extra_id_84>",
      "single_word": false,
      "lstrip": false,
      "rstrip": false,
      "normalized": false,
      "special": true
    },
    {
      "id": 32088,
      "content": "<extra_id_85>",
      "single_word": false,
      "lstrip": false,
      "rstrip": false,
      "normalized": false,
      "special": true
    },
    {
      "id": 32089,
      "content": "<extra_id_86>",
      "single_word": false,
      "lstrip": false,
      "rstrip": false,
      "normalized": false,
      "special": true
    },
    {
      "id": 32090,
      "content": "<extra_id_87>",
      "single_word": false,
      "lstrip": false,
      "rstrip": false,
      "normalized": false,
      "special": true
    },
    {
      "id": 32091,
      "content": "<extra_id_88>",
      "single_word": false,
      "lstrip": false,
      "rstrip": false,
      "normalized": false,
      "special": true
    },
    {
      "id": 32092,
      "content": "<extra_id_89>",
      "single_word": false,
      "lstrip": false,
      "rstrip": false,
      "normalized": false,
      "special": true
    },
    {
      "id": 32093,
      "content": "<extra_id_90>",
      "single_word": false,
      "lstrip": false,
      "rstrip": false,
      "normalized": false,
      "special": true
    },
    {
      "id": 32094,
      "content": "<extra_id_91>",
      "single_word": false,
      "lstrip": false,
      "rstrip": false,
      "normalized": false,
      "special": true
    },
    {
      "id": 32095,
      "content": "<extra_id_92>",
      "single_word": false,
      "lstrip": false,
      "rstrip": false,
      "normalized": false,
      "special": true
    },
    {
      "id": 32096,
      "content": "<extra_id_93>",
      "single_word": false,
      "lstrip": false,
      "rstrip": false,
      "normalized": false,
      "special": true
    },
    {
      "id": 32097,
      "content": "<extra_id_94>",
      "single_word": false,
      "lstrip": false,
      "rstrip": false,
      "normalized": false,
      "special": true
    },
    {
      "id": 32098,
      "content": "<extra_id_95>",
      "single_word": false,
      "lstrip": false,
      "rstrip": false,
      "normalized": false,
      "special": true
    },
    {
      "id": 32099,
      "content": "<extra_id_96>",
      "single_word": false,
      "lstrip": false,
      "rstrip": false,
      "normalized": false,
      "special": true
    },
    {
      "id": 32100,
      "content": "<extra_id_97>",
      "single_word": false,
      "lstrip": false,
      "rstrip": false,
      "normalized": false,
      "special": true
    },
    {
      "id": 32101,
      "content": "<extra_id_98>",
      "single_word": false,
      "lstrip": false,
      "rstrip": false,
      "normalized": false,
      "special": true
    },
    {
      "id": 32102,
      "content": "<extra_id_99>",
      "single_word": false,
      "lstrip": false,
      "rstrip": false,
      "normalized": false,
      "special": true
    }
  ],
  "normalizer": {
    "type": "Sequence",
    "normalizers": [
      {
        "type": "Nmt"
      },
      {
        "type": "NFKC"
      },
      {
        "type": "Replace",
        "pattern": {
          "Regex": " {2,}"
        },
        "content": " "
      }
    ]
  },
  "pre_tokenizer": {
    "type": "Sequence",
    "pretokenizers": [
      {
        "type": "Metaspace",
        "replacement": "▁",
        "add_prefix_space": true
      },
      {
        "type": "Digits",
        "individual_digits": true
      },
      {
        "type": "Punctuation",
        "behavior": "Isolated"
      }
    ]
  },
  "post_processor": {
    "type": "TemplateProcessing",
    "single": [
      {
        "Sequence": {
          "id": "A",
          "type_id": 0
        }
      },
      {
        "SpecialToken": {
          "id": "</s>",
          "type_id": 0
        }
      }
    ],
    "pair": [
      {
        "Sequence": {
          "id": "A",
          "type_id": 0
        }
      },
      {
        "Sequence": {
          "id": "B",
          "type_id": 1
        }
      }
    ],
    "special_tokens": {
      "</s>": {
        "id": "</s>",
        "ids": [
          1
        ],
        "tokens": [
          "</s>"
        ]
      }
    }
  },
  "decoder": {
    "type": "Metaspace",
    "replacement": "▁",
    "add_prefix_space": true
  },
  "model": {
    "type": "Unigram",
    "unk_id": 2,
    "vocab": [
      [
        "<pad>",
        0.0
      ],
      [
        "</s>",
        0.0
      ],
      [
        "<unk>",
        0.0
      ],
      [
        "▁",
        -2.3058913967875654
      ],
      [
        ".",
        -3.183999940566835
      ],
      [
        "▁de",
        -3.427945014365701
      ],
      [
        "en",
        -3.678271692812185
      ],
      [
        ",",
        -3.7318644108286456
      ],
      [
        "▁van",
        -3.975196898543146
      ],
      [
        "▁een",
        -4.0868146247499695
      ],
      [
        "▁het",
        -4.184417036700999
      ],
      [
        "▁in",
        -4.317865919034002
      ],
      [
        "e",
        -4.373167908485076
      ],
      [
        "s",
        -4.561588822720886
      ],
      [
        "▁op",
        -4.75131842610217
      ],
      [
        "▁is",
        -4.793465227958652
      ],
      [
        "▁te",
        -4.939939969550142
      ],
      [
        "0",
        -4.949617123517623
      ],
      [
        "-",
        -5.031360739990035
      ],
      [
        "▁dat",
        -5.065853216988739
      ],
      [
        "▁voor",
        -5.071547658369536
      ],
      [
        "t",
        -5.076125629965215
      ],
      [
        "▁met",
        -5.097261664936095
      ],
      [
        "1",
        -5.137876420690432
      ],
      [
        "▁zijn",
        -5.182599112308074
      ],
      [
        "▁De",
        -5.219769087295777
      ],
      [
        "er",
        -5.287617747713208
      ],
      [
        "2",
        -5.354800043049277
      ],
      [
        "▁die",
        -5.362063735628224
      ],
      [
        "▁aan",
        -5.444214235765617
      ],
      [
        "▁niet",
        -5.493056006330569
      ],
      [
        "u",
        -5.5363547026165385
      ],
      [
        "▁je",
        -5.580122972718403
      ],
      [
        "n",
        -5.630052566106032
      ],
      [
        "▁om",
        -5.631713852002552
      ],
      [
        "d",
        -5.6844076114174165
      ],
      [
        "▁als",
        -5.716026992033822
      ],
      [
        "▁of",
        -5.811480217732418
      ],
      [
        "▁over",
        -5.8670934595850355
      ],
      [
        "'",
        -5.880609158682846
      ],
      [
        "▁bij",
        -5.9030272481020845
      ],
      [
        "▁ook",
        -5.9037589853191434
      ],
      [
        "▁uit",
        -5.914150766636068
      ],
      [
        ")",
        -5.924317724470907
      ],
      [
        "(",
        -5.933938246197048
      ],
      [
        "a",
        -5.940476075313539
      ],
      [
        "▁Het",
        -5.965002038033079
      ],
      [
        "▁door",
        -5.9802147590626475
      ],
      [
        "5",
        -6.007179719066896
      ],
      [
        "i",
        -6.067770742507641
      ],
      [
        "3",
        -6.083877014653186
      ],
      [
        ":",
        -6.094180405997621
      ],
      [
        "▁heeft",
        -6.102366012873354
      ],
      [
        "?",
        -6.11049918334783
      ],
      [
        "▁maar",
        -6.111611148935706
      ],
      [
        "9",
        -6.129139249410972
      ],
      [
        "▁naar",
        -6.129915541150259
      ],
      [
        "▁dan",
        -6.171469613040701
      ],
      [
        "o",
        -6.179832614448024
      ],
      [
        "4",
        -6.246583653252541
      ],
      [
        "▁worden",
        -6.264073455906752
      ],
      [
        "▁nog",
        -6.282787363861052
      ],
      [
        "▁dit",
        -6.299926052183622
      ],
      [
        "▁was",
        -6.314597437676111
      ],
      [
        "\"",
        -6.314617618320954
      ],
      [
        "▁ik",
        -6.329868980506339
      ],
      [
        "▁hij",
        -6.343099456978024
      ],
      [
        "de",
        -6.361402237397559
      ],
      [
        "▁ze",
        -6.362742482349722
      ],
      [
        "6",
        -6.380468885237381
      ],
      [
        "l",
        -6.382178505725024
      ],
      [
        "r",
        -6.402755440186642
      ],
      [
        "▁In",
        -6.405153796588925
      ],
      [
        "’",
        -6.415439923865666
      ],
      [
        "▁wordt",
        -6.421496057067797
      ],
      [
        "▁tot",
        -6.427826147573299
      ],
      [
        "▁meer",
        -6.441979949722869
      ],
      [
        "8",
        -6.457159804025501
      ],
      [
        "▁hebben",
        -6.477168427676359
      ],
      [
        "▁jaar",
        -6.486886352483188
      ],
      [
        "▁deze",
        -6.487834527811442
      ],
      [
        "7",
        -6.505338542339336
      ],
      [
        "▁kan",
        -6.506754147810508
      ],
      [
        "m",
        -6.543103373830755
      ],
      [
        "▁al",
        -6.553817900423471
      ],
      [
        "▁zo",
        -6.609143636212265
      ],
      [
        "k",
        -6.670300974091967
      ],
      [
        "!",
        -6.678770509651031
      ],
      [
        "▁zich",
        -6.683970375778344
      ],
      [
        "▁we",
        -6.730243257127896
      ],
      [
        "▁wat",
        -6.760712509927213
      ],
      [
        "▁wel",
        -6.770926897075235
      ],
      [
        "▁geen",
        -6.792151953129636
      ],
      [
        "▁kunnen",
        -6.80340424482031
      ],
      [
        "▁daar",
        -6.806574903614923
      ],
      [
        "▁hun",
        -6.859117052668486
      ],
      [
        "▁ons",
        -6.871941843277609
      ],
      [
        "▁ge",
        -6.8886504633958925
      ],
      [
        "▁veel",
        -6.910390015769414
      ],
      [
        "▁werd",
        -6.911459040470456
      ],
      [
        "▁Een",
        -6.928739728075506
      ],
      [
        "▁onder",
        -6.940049391289083
      ],
      [
        "▁Dat",
        -6.96603131050877
      ],
      [
        "▁We",
        -6.972116803067225
      ],
      [
        "▁na",
        -6.9726523112875025
      ],
      [
        "▁af",
        -6.974684161159914
      ],
      [
        "in",
        -6.997736737116075
      ],
      [
        "heid",
        -7.000955869740752
      ],
      [
        "”",
        -7.013394024986136
      ],
      [
        "▁nu",
        -7.0172922705867045
      ],
      [
        "g",
        -7.026772867161613
      ],
      [
        "▁haar",
        -7.0351505035225586
      ],
      [
        "▁moet",
        -7.043823048983787
      ],
      [
        "▁tegen",
        -7.071663350411953
      ],
      [
        "▁waar",
        -7.076378881419558
      ],
      [
        "▁andere",
        -7.081167577357121
      ],
      [
        "▁zou",
        -7.127430393186314
      ],
      [
        "‘",
        -7.135833127508539
      ],
      [
        "p",
        -7.147429912363856
      ],
      [
        "▁twee",
        -7.161272347682631
      ],
      [
        "▁nieuwe",
        -7.176021999264364
      ],
      [
        "v",
        -7.177905526146727
      ],
      [
        "ing",
        -7.196762458369333
      ],
      [
        "/",
        -7.205682052533936
      ],
      [
        "▁gaat",
        -7.208421271894762
      ],
      [
        "▁goed",
        -7.210047824048999
      ],
      [
        "h",
        -7.215458844911541
      ],
      [
        "▁maken",
        -7.236846202787058
      ],
      [
        "▁Maar",
        -7.23830874776228
      ],
      [
        "over",
        -7.243108461211802
      ],
      [
        "▁weer",
        -7.253709632937289
      ],
      [
        "▁ver",
        -7.255521581105505
      ],
      [
        "▁zeer",
        -7.268311351154827
      ],
      [
        "▁zal",
        -7.269007958981687
      ],
      [
        "▁mensen",
        -7.276729039097621
      ],
      [
        "▁gaan",
        -7.291905966603844
      ],
      [
        "▁En",
        -7.29448980916332
      ],
      [
        "▁alle",
        -7.294513201440496
      ],
      [
        "uw",
        -7.301619093773324
      ],
      [
        "f",
        -7.303062228446482
      ],
      [
        "▁had",
        -7.306585563418256
      ],
      [
        "y",
        -7.309688102923843
      ],
      [
        "▁prijs",
        -7.314244792154216
      ],
      [
        "ziet",
        -7.331502372031974
      ],
      [
        "▁eerste",
        -7.33467423493132
      ],
      [
        "b",
        -7.345693677027619
      ],
      [
        "▁be",
        -7.350844014418616
      ],
      [
        "al",
        -7.35250662910615
      ],
      [
        "▁Ik",
        -7.374386692592864
      ],
      [
        "▁stellen",
        -7.390627868424595
      ],
      [
        "▁Op",
        -7.393544618570777
      ],
      [
        "▁tijd",
        -7.405630616112678
      ],
      [
        "▁S",
        -7.416298079772012
      ],
      [
        "▁procent",
        -7.435602094095899
      ],
      [
        "–",
        -7.43677720250791
      ],
      [
        "c",
        -7.43733637326312
      ],
      [
        "▁staat",
        -7.440854975898342
      ],
      [
        "▁Ook",
        -7.442298726235558
      ],
      [
        "▁A",
        -7.448697146606799
      ],
      [
        "▁hier",
        -7.451203543910131
      ],
      [
        "▁Hij",
        -7.451310521817886
      ],
      [
        "▁spel",
        -7.454315308908006
      ],
      [
        "▁toe",
        -7.470639081436227
      ],
      [
        "▁Nederland",
        -7.472468680685356
      ],
      [
        "z",
        -7.480173258243182
      ],
      [
        "▁wil",
        -7.483734285319661
      ],
      [
        "▁mee",
        -7.485740987289112
      ],
      [
        "▁mijn",
        -7.494880574207418
      ],
      [
        "▁on",
        -7.502122782770037
      ],
      [
        "▁bericht",
        -7.507234227711342
      ],
      [
        "fout",
        -7.511174209856556
      ],
      [
        "▁alleen",
        -7.515382326572372
      ],
      [
        "▁tussen",
        -7.524770269498237
      ],
      [
        "▁onderwerp",
        -7.526282212874284
      ],
      [
        "▁moeten",
        -7.547122637515427
      ],
      [
        "▁Van",
        -7.555262412240504
      ],
      [
        "▁Dit",
        -7.559020094714562
      ],
      [
        "Heeft",
        -7.563633728347011
      ],
      [
        "▁doen",
        -7.564104469282556
      ],
      [
        "▁Als",
        -7.564666314855225
      ],
      [
        "▁grote",
        -7.571137935754688
      ],
      [
        "▁dus",
        -7.57608099038711
      ],
      [
        "▁onze",
        -7.577990479410618
      ],
      [
        "▁hoe",
        -7.5813459836385455
      ],
      [
        "▁zelf",
        -7.582888917074907
      ],
      [
        "▁tip",
        -7.591631919132201
      ],
      [
        "▁eigen",
        -7.60474529980482
      ],
      [
        "▁komen",
        -7.606406219511921
      ],
      [
        "onjuist",
        -7.612233995817128
      ],
      [
        "▁stuurt",
        -7.617575667421345
      ],
      [
        "feitelijk",
        -7.620350490370029
      ],
      [
        "▁zoals",
        -7.622324747195092
      ],
      [
        "▁zien",
        -7.6313763639923025
      ],
      [
        "„",
        -7.635619197141178
      ],
      [
        "▁komt",
        -7.641321147627856
      ],
      [
        "▁omdat",
        -7.643953084656832
      ],
      [
        "▁heb",
        -7.646259020832165
      ],
      [
        "▁hem",
        -7.656032062988201
      ],
      [
        "je",
        -7.659632719877665
      ],
      [
        "▁kunt",
        -7.6622522944833875
      ],
      [
        "▁Voor",
        -7.673327873519778
      ],
      [
        "▁Er",
        -7.676464705064934
      ],
      [
        "▁per",
        -7.681271615613065
      ],
      [
        "“",
        -7.685518095467208
      ],
      [
        "▁euro",
        -7.701145434657988
      ],
      [
        "▁binnen",
        -7.705536880722095
      ],
      [
        "▁Ze",
        -7.710946604897934
      ],
      [
        "▁zij",
        -7.720456241462214
      ],
      [
        "▁B",
        -7.7453038688052285
      ],
      [
        "▁Je",
        -7.746027535627238
      ],
      [
        "▁heel",
        -7.756098161698507
      ],
      [
        "▁Zo",
        -7.765633993694522
      ],
      [
        "is",
        -7.767142439807985
      ],
      [
        "▁waren",
        -7.768331507870416
      ],
      [
        "▁terug",
        -7.781849501995406
      ],
      [
        "▁Met",
        -7.782036986155736
      ],
      [
        "▁drie",
        -7.784132224317368
      ],
      [
        "▁Deze",
        -7.80695596218437
      ],
      [
        ";",
        -7.825967251031191
      ],
      [
        "▁dag",
        -7.840193506104466
      ],
      [
        "▁C",
        -7.846233491152933
      ],
      [
        "▁altijd",
        -7.847739694136553
      ],
      [
        "▁zegt",
        -7.858369060347313
      ],
      [
        "▁aantal",
        -7.860736559107023
      ],
      [
        "▁week",
        -7.8674685636224915
      ],
      [
        "▁wij",
        -7.872746110749617
      ],
      [
        "▁plaats",
        -7.87348171816377
      ],
      [
        "▁laten",
        -7.877571443825849
      ],
      [
        "▁miljoen",
        -7.8785561598464255
      ],
      [
        "▁mogelijk",
        -7.878677895723026
      ],
      [
        "▁Bij",
        -7.879970497142203
      ],
      [
        "▁via",
        -7.8885800485331075
      ],
      [
        "▁jaren",
        -7.893219603317355
      ],
      [
        "▁D",
        -7.896404154630087
      ],
      [
        "▁uur",
        -7.897649770556363
      ],
      [
        "▁Nederlandse",
        -7.897741871773082
      ],
      [
        "▁weg",
        -7.9000466725493315
      ],
      [
        "▁iets",
        -7.907022573198933
      ],
      [
        "▁één",
        -7.908289945103299
      ],
      [
        "ers",
        -7.9092650831069236
      ],
      [
        "▁werk",
        -7.913146346975919
      ],
      [
        "▁Na",
        -7.923483229322764
      ],
      [
        "▁volgens",
        -7.927547245088476
      ],
      [
        "▁leven",
        -7.929268908348774
      ],
      [
        "▁toch",
        -7.933186560770258
      ],
      [
        "▁Daar",
        -7.93663986151898
      ],
      [
        "▁steeds",
        -7.940491050415373
      ],
      [
        "▁keer",
        -7.94532155860756
      ],
      [
        "▁tijdens",
        -7.98054332614694
      ],
      [
        "▁me",
        -7.9860595460591455
      ],
      [
        "ten",
        -7.997231205516272
      ],
      [
        "▁minder",
        -8.001257200292947
      ],
      [
        "▁nodig",
        -8.001295876220404
      ],
      [
        "▁staan",
        -8.001708113312613
      ],
      [
        "ste",
        -8.00692590324339
      ],
      [
        "▁elkaar",
        -8.013378567947315
      ],
      [
        "▁E",
        -8.01696519167093
      ],
      [
        "▁onderzoek",
        -8.01945422419319
      ],
      [
        "▁zonder",
        -8.023219241810176
      ],
      [
        "▁maakt",
        -8.026827166792826
      ],
      [
        "▁Volgens",
        -8.027628353358951
      ],
      [
        "▁ben",
        -8.03071405996365
      ],
      [
        "▁laatste",
        -8.03098752125793
      ],
      [
        "▁samen",
        -8.033970886778887
      ],
      [
        "▁P",
        -8.035082733843424
      ],
      [
        "▁verder",
        -8.037940524050596
      ],
      [
        "▁even",
        -8.040230674761625
      ],
      [
        "▁G",
        -8.044209928206405
      ],
      [
        "▁weten",
        -8.047124742961259
      ],
      [
        "▁wereld",
        -8.0530442371352
      ],
      [
        "▁land",
        -8.060372033942938
      ],
      [
        "w",
        -8.062504830186667
      ],
      [
        "▁willen",
        -8.062808919840133
      ],
      [
        "▁krijgen",
        -8.063997223770068
      ],
      [
        "▁gemaakt",
        -8.073709403463141
      ],
      [
        "▁T",
        -8.076929413239695
      ],
      [
        "V",
        -8.080174928074715
      ],
      [
        "an",
        -8.08522730957906
      ],
      [
        "▁toen",
        -8.086882567824414
      ],
      [
        "▁snel",
        -8.095123504742439
      ],
      [
        "▁geld",
        -8.102644265031964
      ],
      [
        "▁Wat",
        -8.105239140132147
      ],
      [
        "op",
        -8.107646658191184
      ],
      [
        "▁vooral",
        -8.10845493621111
      ],
      [
        "▁M",
        -8.111187405193931
      ],
      [
        "▁K",
        -8.11813148047269
      ],
      [
        "▁kinderen",
        -8.11892438169647
      ],
      [
        "▁eerder",
        -8.123158230454917
      ],
      [
        "▁gebruik",
        -8.12812746207761
      ],
      [
        "j",
        -8.12902238520053
      ],
      [
        "▁vinden",
        -8.13889023151358
      ],
      [
        "▁verschillende",
        -8.144967050760998
      ],
      [
        "▁achter",
        -8.149722782082552
      ],
      [
        "man",
        -8.149935888143498
      ],
      [
        "▁auto",
        -8.152736262828753
      ],
      [
        "▁Amerikaanse",
        -8.16121435587137
      ],
      [
        "▁bekend",
        -8.163744606247976
      ],
      [
        "▁zei",
        -8.167031501226186
      ],
      [
        "▁kwam",
        -8.16746930705339
      ],
      [
        "▁groot",
        -8.173134815223637
      ],
      [
        "▁afgelopen",
        -8.174268950049836
      ],
      [
        "▁vaak",
        -8.175151254845032
      ],
      [
        "▁bedrijf",
        -8.176997229220817
      ],
      [
        "▁U",
        -8.177110712171514
      ],
      [
        "▁the",
        -8.17931178146265
      ],
      [
        "▁geven",
        -8.181520344443856
      ],
      [
        "▁deel",
        -8.182207438872608
      ],
      [
        "▁zullen",
        -8.184886909420143
      ],
      [
        "ging",
        -8.185817344388786
      ],
      [
        "▁Die",
        -8.191580674251073
      ],
      [
        "x",
        -8.198719790961107
      ],
      [
        "▁werden",
        -8.224092447023086
      ],
      [
        "▁informatie",
        -8.230305588069484
      ],
      [
        "▁man",
        -8.23164863970617
      ],
      [
        "▁mij",
        -8.237505175896038
      ],
      [
        "jes",
        -8.237597966860614
      ],
      [
        "▁politie",
        -8.23824825759747
      ],
      [
        "▁echt",
        -8.239574306501648
      ],
      [
        "▁alles",
        -8.242393884670772
      ],
      [
        "▁I",
        -8.243393212083122
      ],
      [
        "▁goede",
        -8.24620333372281
      ],
      [
        "▁bijvoorbeeld",
        -8.247565842868044
      ],
      [
        "vindt",
        -8.249921579123775
      ],
      [
        "▁rond",
        -8.273651393637543
      ],
      [
        "▁H",
        -8.274001472201487
      ],
      [
        "▁laat",
        -8.278029141636697
      ],
      [
        "▁Europese",
        -8.283386401032793
      ],
      [
        "▁manier",
        -8.284184351211978
      ],
      [
        "▁tweede",
        -8.285748893613338
      ],
      [
        "▁werken",
        -8.286942777663475
      ],
      [
        "▁zeker",
        -8.287683915578429
      ],
      [
        "▁net",
        -8.292525262976206
      ],
      [
        "om",
        -8.293788154103176
      ],
      [
        "▁foto",
        -8.298329969708488
      ],
      [
        "▁houden",
        -8.301353366681994
      ],
      [
        "D",
        -8.303244301263508
      ],
      [
        "&",
        -8.305576721252917
      ],
      [
        "S",
        -8.311744983663283
      ],
      [
        "▁waarin",
        -8.316270983345953
      ],
      [
        "▁vier",
        -8.32107591909822
      ],
      [
        "▁huis",
        -8.323271821413645
      ],
      [
        "▁moment",
        -8.328472615536068
      ],
      [
        "ver",
        -8.332319675321127
      ],
      [
        "▁aldus",
        -8.333851727625158
      ],
      [
        "▁zelfs",
        -8.33908513714242
      ],
      [
        "▁F",
        -8.340043446694839
      ],
      [
        "▁lang",
        -8.342906241098982
      ],
      [
        "▁zit",
        -8.34411792201703
      ],
      [
        "▁beter",
        -8.34457777555936
      ],
      [
        "▁nemen",
        -8.345509996203672
      ],
      [
        "▁The",
        -8.345927303461103
      ],
      [
        "▁hele",
        -8.346543357356211
      ],
      [
        "▁echter",
        -8.350025989036444
      ],
      [
        "▁moest",
        -8.372820626060061
      ],
      [
        "▁R",
        -8.376096792533138
      ],
      [
        "us",
        -8.376837097314617
      ],
      [
        "▁beste",
        -8.381240586462622
      ],
      [
        "▁want",
        -8.383876128293256
      ],
      [
        "ische",
        -8.384230520894304
      ],
      [
        "▁mag",
        -8.38590560755993
      ],
      [
        "▁blijven",
        -8.38671417462215
      ],
      [
        "▁Door",
        -8.38727144610904
      ],
      [
        "N",
        -8.387488378702487
      ],
      [
        "jarige",
        -8.3897653692051
      ],
      [
        "▁enkele",
        -8.391671977976864
      ],
      [
        "▁Amsterdam",
        -8.394028903226756
      ],
      [
        "▁erg",
        -8.397459314482381
      ],
      [
        "▁bijna",
        -8.402629039740225
      ],
      [
        "▁kon",
        -8.40356542662746
      ],
      [
        "▁O",
        -8.403941355012558
      ],
      [
        "▁ruim",
        -8.406799361736518
      ],
      [
        "and",
        -8.407762757468554
      ],
      [
        "A",
        -8.408758607870608
      ],
      [
        "▁water",
        -8.41121782595619
      ],
      [
        "▁Al",
        -8.412973517704616
      ],
      [
        "der",
        -8.41750421937776
      ],
      [
        "▁weet",
        -8.417734005605679
      ],
      [
        "▁dagen",
        -8.428006698553936
      ],
      [
        "▁later",
        -8.428477629521614
      ],
      [
        "▁wie",
        -8.429525279984908
      ],
      [
        "▁hand",
        -8.432054816985149
      ],
      [
        "▁sinds",
        -8.432403363850122
      ],
      [
        "▁ligt",
        -8.43448264326991
      ],
      [
        "▁buiten",
        -8.434718738231654
      ],
      [
        "▁ont",
        -8.439715890417574
      ],
      [
        "▁geleden",
        -8.441902568613855
      ],
      [
        "▁vraag",
        -8.442876825042399
      ],
      [
        "▁eerst",
        -8.44634420333657
      ],
      [
        "▁zouden",
        -8.447507469417362
      ],
      [
        "▁boek",
        -8.447565317415371
      ],
      [
        "aan",
        -8.450208480343365
      ],
      [
        "▁kun",
        -8.450845448162388
      ],
      [
        "▁vanaf",
        -8.45401585552997
      ],
      [
        "▁nooit",
        -8.454087689456763
      ],
      [
        "B",
        -8.456407569773061
      ],
      [
        "▁extra",
        -8.456522191890068
      ],
      [
        "▁Wij",
        -8.460920841186324
      ],
      [
        "▁L",
        -8.465501756163121
      ],
      [
        "▁krijgt",
        -8.467955044480481
      ],
      [
        "▁hadden",
        -8.472867362287012
      ],
      [
        "▁Ver",
        -8.476505124842893
      ],
      [
        "▁gebruikt",
        -8.478555758774979
      ],
      [
        "▁anders",
        -8.48255176804542
      ],
      [
        "▁doet",
        -8.48629939203768
      ],
      [
        "▁hebt",
        -8.48863789458557
      ],
      [
        "▁hoofd",
        -8.490569665131403
      ],
      [
        "▁zeggen",
        -8.491153004076327
      ],
      [
        "▁maand",
        -8.497560036942664
      ],
      [
        "▁weinig",
        -8.49772080576921
      ],
      [
        "▁blijft",
        -8.499228333005755
      ],
      [
        "▁Hoe",
        -8.499293416388923
      ],
      [
        "dat",
        -8.511730623223919
      ],
      [
        "▁geeft",
        -8.519930059423304
      ],
      [
        "▁vragen",
        -8.520899622896655
      ],
      [
        "`",
        -8.527450980762923
      ],
      [
        "De",
        -8.536633160020896
      ],
      [
        "▁lijkt",
        -8.540987385124541
      ],
      [
        "▁website",
        -8.54163273944783
      ],
      [
        "▁blijkt",
        -8.542421145734842
      ],
      [
        "tje",
        -8.544164697769542
      ],
      [
        "▁eind",
        -8.544187314383521
      ],
      [
        "▁vijf",
        -8.545349342515435
      ],
      [
        "▁maanden",
        -8.546680028732005
      ],
      [
        "▁Om",
        -8.551789967666728
      ],
      [
        "▁graag",
        -8.554319808851602
      ],
      [
        "▁J",
        -8.554627227559225
      ],
      [
        "▁geval",
        -8.554782552296953
      ],
      [
        "▁miljard",
        -8.559056865991089
      ],
      [
        "▁film",
        -8.571620499628487
      ],
      [
        "▁basis",
        -8.576458379110305
      ],
      [
        "▁licht",
        -8.58133698643992
      ],
      [
        "▁gewoon",
        -8.581890307942798
      ],
      [
        "▁vast",
        -8.582399481246828
      ],
      [
        "▁W",
        -8.583724900101004
      ],
      [
        "▁kleine",
        -8.585324444847798
      ],
      [
        "▁stad",
        -8.587556110706151
      ],
      [
        "▁paar",
        -8.588108099960602
      ],
      [
        "vorig",
        -8.590694272090042
      ],
      [
        "▁duidelijk",
        -8.593410001380853
      ],
      [
        "▁bent",
        -8.60422332553781
      ],
      [
        "▁vol",
        -8.605249813682532
      ],
      [
        "▁zitten",
        -8.606933678761614
      ],
      [
        "▁boven",
        -8.607495516879542
      ],
      [
        "M",
        -8.607853661343944
      ],
      [
        "▁Hier",
        -8.610854317277436
      ],
      [
        "▁minister",
        -8.611177789299761
      ],
      [
        "▁meest",
        -8.611240250525118
      ],
      [
        "T",
        -8.611925953089601
      ],
      [
        "gesteld",
        -8.612686514606485
      ],
      [
        "▁online",
        -8.613098200670095
      ],
      [
        "▁maakte",
        -8.617076942604138
      ],
      [
        "▁bedrijven",
        -8.620560539157376
      ],
      [
        "Ik",
        -8.620890526008072
      ],
      [
        "▁vrij",
        -8.622824394098208
      ],
      [
        "▁direct",
        -8.623148267564954
      ],
      [
        "▁gemeente",
        -8.624267253809498
      ],
      [
        "é",
        -8.62585256936416
      ],
      [
        "▁helemaal",
        -8.62676270003517
      ],
      [
        "▁natuurlijk",
        -8.627769111501143
      ],
      [
        "▁elke",
        -8.632330441932307
      ],
      [
        "▁welke",
        -8.637276879482254
      ],
      [
        "▁eens",
        -8.647241546626272
      ],
      [
        "%",
        -8.647879584810001
      ],
      [
        "▁vind",
        -8.65230082523183
      ],
      [
        "▁begin",
        -8.653429019100718
      ],
      [
        "uit",
        -8.655323642299331
      ],
      [
        "wanneer",
        -8.656921542271377
      ],
      [
        "eren",
        -8.659789143968643
      ],
      [
        "land",
        -8.659840333303565
      ],
      [
        "▁Zij",
        -8.659894405360363
      ],
      [
        "▁vrouw",
        -8.662434883038985
      ],
      [
        "▁ter",
        -8.663152628785346
      ],
      [
        "▁Dan",
        -8.664507669298281
      ],
      [
        "▁grootste",
        -8.669244101358515
      ],
      [
        "▁kreeg",
        -8.670852552235113
      ],
      [
        "▁vrouwen",
        -8.671677442288967
      ],
      [
        "▁president",
        -8.672748875386732
      ],
      [
        "▁geweest",
        -8.678688353491307
      ],
      [
        "of",
        -8.685399248092832
      ],
      [
        "▁ander",
        -8.690542599356569
      ],
      [
        "€",
        -8.69077815626903
      ],
      [
        "Het",
        -8.692554008894104
      ],
      [
        "▁landen",
        -8.695898452727242
      ],
      [
        "G",
        -8.697519679666517
      ],
      [
        "▁naam",
        -8.699791402782516
      ],
      [
        "▁partij",
        -8.70041991292167
      ],
      [
        "▁gebruiken",
        -8.701197541156375
      ],
      [
        "▁enige",
        -8.704593254791417
      ],
      [
        "▁weken",
        -8.705222700434643
      ],
      [
        "▁terwijl",
        -8.712012218155879
      ],
      [
        "ende",
        -8.713451445118357
      ],
      [
        "zodat",
        -8.71504739486108
      ],
      [
        "▁Nu",
        -8.7159659477559
      ],
      [
        "▁contact",
        -8.716628487911159
      ],
      [
        "▁allemaal",
        -8.717510937847637
      ],
      [
        "▁Europa",
        -8.718588819360562
      ],
      [
        "▁gisteren",
        -8.71891129959064
      ],
      [
        "▁waarbij",
        -8.72506875008801
      ],
      [
        "weg",
        -8.725757068559574
      ],
      [
        "door",
        -8.726208889208555
      ],
      [
        "▁iedereen",
        -8.728905010491644
      ],
      [
        "▁niets",
        -8.73036912594337
      ],
      [
        "▁Kamer",
        -8.732318210950558
      ],
      [
        "▁Be",
        -8.732715791235279
      ],
      [
        "▁Ge",
        -8.735874193687005
      ],
      [
        "▁kosten",
        -8.736126383538645
      ],
      [
        "▁rol",
        -8.737438178244632
      ],
      [
        "▁jouw",
        -8.743168284335184
      ],
      [
        "ik",
        -8.743222891087704
      ],
      [
        "▁pas",
        -8.743993111746684
      ],
      [
        "▁kans",
        -8.745726490566769
      ],
      [
        "▁juist",
        -8.747254634290226
      ],
      [
        "▁genoeg",
        -8.749495425575658
      ],
      [
        "▁werkt",
        -8.750353665204742
      ],
      [
        "▁waardoor",
        -8.75291418113405
      ],
      [
        "▁top",
        -8.755050639391671
      ],
      [
        "▁Of",
        -8.75792427232794
      ],
      [
        "▁men",
        -8.760797578663478
      ],
      [
        "▁nieuw",
        -8.763039859294478
      ],
      [
        "▁zorgen",
        -8.766812355880049
      ],
      [
        "▁meeste",
        -8.768572026853464
      ],
      [
        "▁jij",
        -8.769786883100348
      ],
      [
        "C",
        -8.770588120802978
      ],
      [
        "▁gratis",
        -8.77782666286206
      ],
      [
        "▁mooi",
        -8.780927205212897
      ],
      [
        "▁tien",
        -8.781123416509388
      ],
      [
        "▁groep",
        -8.782336988433045
      ],
      [
        "O",
        -8.78258449109156
      ],
      [
        "▁regering",
        -8.783436675899033
      ],
      [
        "▁hoog",
        -8.785058652752253
      ],
      [
        "▁slechts",
        -8.7856305564882
      ],
      [
        "▁volgende",
        -8.78715069311034
      ],
      [
        "▁thuis",
        -8.79037307947115
      ],
      [
        "▁Aan",
        -8.790995062865049
      ],
      [
        "▁gedaan",
        -8.791597827683507
      ],
      [
        "houdt",
        -8.794913861965929
      ],
      [
        "neemt",
        -8.796959146276334
      ],
      [
        "gekomen",
        -8.798676480513699
      ],
      [
        "▁belangrijk",
        -8.801409077150186
      ],
      [
        "▁to",
        -8.804554473579365
      ],
      [
        "▁ongeveer",
        -8.806303076470368
      ],
      [
        "▁stond",
        -8.813251792053215
      ],
      [
        "▁wilde",
        -8.813600052960618
      ],
      [
        "▁kijken",
        -8.814862348363569
      ],
      [
        "▁gebied",
        -8.815413278615884
      ],
      [
        "tjes",
        -8.81689032433237
      ],
      [
        "▁dollar",
        -8.817626814150218
      ],
      [
        "halen",
        -8.81988264747246
      ],
      [
        "vorige",
        -8.821231542105714
      ],
      [
        "▁brengen",
        -8.825006225363945
      ],
      [
        "bare",
        -8.82827980800314
      ],
      [
        "▁iemand",
        -8.837816382493108
      ],
      [
        "▁oude",
        -8.844398078628865
      ],
      [
        "▁zorg",
        -8.848732209784469
      ],
      [
        "▁mooie",
        -8.849152126997843
      ],
      [
        "▁Zijn",
        -8.85467415571441
      ],
      [
        "H",
        -8.855114834774348
      ],
      [
        "com",
        -8.855458034126704
      ],
      [
        "▁zetten",
        -8.855469501511008
      ],
      [
        "ar",
        -8.856480870208111
      ],
      [
        "▁media",
        -8.857037757965736
      ],
      [
        "▁vanuit",
        -8.8579851361809
      ],
      [
        "biedt",
        -8.859991739388981
      ],
      [
        "▁bestaat",
        -8.863271680744093
      ],
      [
        "▁derde",
        -8.866426669093807
      ],
      [
        "gebracht",
        -8.87077285550133
      ],
      [
        "▁zaken",
        -8.871101006740568
      ],
      [
        "▁markt",
        -8.871334587356278
      ],
      [
        "▁problemen",
        -8.872148550479466
      ],
      [
        "werk",
        -8.872844022951712
      ],
      [
        "▁artikel",
        -8.87397767382621
      ],
      [
        "▁liet",
        -8.87900927783445
      ],
      [
        "▁reden",
        -8.880356442314032
      ],
      [
        "▁vorm",
        -8.880677740725847
      ],
      [
        "▁oud",
        -8.883311056184805
      ],
      [
        "▁minuten",
        -8.88352488365909
      ],
      [
        "ma",
        -8.890779886344465
      ],
      [
        "▁ruimte",
        -8.891981023207071
      ],
      [
        "▁muziek",
        -8.892149462607282
      ],
      [
        "ster",
        -8.892797816165404
      ],
      [
        "▁zowel",
        -8.89356623880453
      ],
      [
        "mee",
        -8.89796130662328
      ],
      [
        "▁daarom",
        -8.898071126116436
      ],
      [
        "huis",
        -8.899181775164102
      ],
      [
        "▁vrijdag",
        -8.901705488531995
      ],
      [
        "▁hoge",
        -8.907570464994544
      ],
      [
        "▁familie",
        -8.908553388701277
      ],
      [
        "▁start",
        -8.908840832531792
      ],
      [
        "▁zoek",
        -8.908970555705297
      ],
      [
        "▁vandaag",
        -8.910353783674099
      ],
      [
        "▁eigenlijk",
        -8.912742486362795
      ],
      [
        "▁grond",
        -8.916079058499378
      ],
      [
        "▁helpen",
        -8.920792491436222
      ],
      [
        "soms",
        -8.921415211854825
      ],
      [
        "▁mogen",
        -8.924640499087852
      ],
      [
        "W",
        -8.926075347763293
      ],
      [
        "▁school",
        -8.927011782187394
      ],
      [
        "▁programma",
        -8.934120424955179
      ],
      [
        "▁soort",
        -8.934800818242428
      ],
      [
        "leggen",
        -8.935680549379722
      ],
      [
        "ton",
        -8.93633704226991
      ],
      [
        "▁organisatie",
        -8.93678263413486
      ],
      [
        "Daarnaast",
        -8.937054927021999
      ],
      [
        "▁ga",
        -8.937604909294015
      ],
      [
        "▁recht",
        -8.938865898004048
      ],
      [
        "▁kopen",
        -8.947765277067559
      ],
      [
        "▁spelen",
        -8.949834998488098
      ],
      [
        "baar",
        -8.950184317266526
      ],
      [
        "▁probleem",
        -8.950975176795401
      ],
      [
        "▁misschien",
        -8.952956214913074
      ],
      [
        "▁gezien",
        -8.954049047379755
      ],
      [
        "▁mannen",
        -8.955052549210668
      ],
      [
        "▁denken",
        -8.95670348576314
      ],
      [
        "▁vele",
        -8.957469245677204
      ],
      [
        "▁namelijk",
        -8.96138966281848
      ],
      [
        "▁opnieuw",
        -8.962479796423409
      ],
      [
        "E",
        -8.963270635705044
      ],
      [
        "▁leuk",
        -8.96551002041159
      ],
      [
        "▁moeilijk",
        -8.97013746159653
      ],
      [
        "▁Duitse",
        -8.970526952470625
      ],
      [
        "▁verhaal",
        -8.970678770684213
      ],
      [
        "▁totaal",
        -8.972612427466206
      ],
      [
        "▁hotel",
        -8.97448909208448
      ],
      [
        "▁druk",
        -8.974648496101796
      ],
      [
        "▁wilt",
        -8.976152813107012
      ],
      [
        "▁energie",
        -8.982440634431793
      ],
      [
        "▁elk",
        -8.983815865421706
      ],
      [
        "▁internet",
        -8.984877685496999
      ],
      [
        "We",
        -8.98566257001549
      ],
      [
        "▁huidige",
        -8.9866127831671
      ],
      [
        "K",
        -8.986688651852857
      ],
      [
        "ij",
        -8.986793750515487
      ],
      [
        "▁dezelfde",
        -8.988993846820756
      ],
      [
        "F",
        -8.991757329622205
      ],
      [
        "ige",
        -8.991908167874255
      ],
      [
        "▁zaterdag",
        -8.992069851167319
      ],
      [
        "▁Zuid",
        -8.9927813278764
      ],
      [
        "▁kind",
        -8.992857441314488
      ],
      [
        "gen",
        -8.993526358767495
      ],
      [
        "▁gegevens",
        -8.994209809879807
      ],
      [
        "J",
        -8.995035048380585
      ],
      [
        "▁mei",
        -8.997353107871252
      ],
      [
        "▁bank",
        -8.997990260878506
      ],
      [
        "▁inmiddels",
        -8.9988558257722
      ],
      [
        "▁politieke",
        -9.00157381118318
      ],
      [
        "eert",
        -9.003020974477478
      ],
      [
        "▁maandag",
        -9.003232263312267
      ],
      [
        "▁geworden",
        -9.00328653981506
      ],
      [
        "▁donderdag",
        -9.004385347605231
      ],
      [
        "verantwoordelijk",
        -9.006550165049317
      ],
      [
        "delen",
        -9.007048912001991
      ],
      [
        "bij",
        -9.007832274572015
      ],
      [
        "L",
        -9.008047767598486
      ],
      [
        "▁bieden",
        -9.013004734562571
      ],
      [
        "▁Uit",
        -9.014434439744
      ],
      [
        "▁lekker",
        -9.015024581246829
      ],
      [
        "▁beetje",
        -9.016837197452638
      ],
      [
        "ze",
        -9.017508043390208
      ],
      [
        "]",
        -9.0193649044878
      ],
      [
        "▁beeld",
        -9.019693055365773
      ],
      [
        "▁dood",
        -9.019728903586742
      ],
      [
        "[",
        -9.01977894250559
      ],
      [
        "▁seizoen",
        -9.02079511411587
      ],
      [
        "▁vond",
        -9.02491485109697
      ],
      [
        "▁klanten",
        -9.025634777480215
      ],
      [
        "▁zondag",
        -9.027665080552358
      ],
      [
        "▁groter",
        -9.02920593716164
      ],
      [
        "▁lange",
        -9.03224923751428
      ],
      [
        "sch",
        -9.03253692577058
      ],
      [
        "ter",
        -9.03409563312752
      ],
      [
        "▁naast",
        -9.034149188427111
      ],
      [
        "atie",
        -9.034493434818176
      ],
      [
        "▁verwacht",
        -9.037700767506724
      ],
      [
        "▁liggen",
        -9.039268297861192
      ],
      [
        "▁Over",
        -9.04079844044319
      ],
      [
        "▁Niet",
        -9.04321130708697
      ],
      [
        "▁kabinet",
        -9.043866837307004
      ],
      [
        "▁langs",
        -9.044514128840524
      ],
      [
        "▁best",
        -9.044554226765957
      ],
      [
        "▁woensdag",
        -9.044821362627928
      ],
      [
        "▁omgeving",
        -9.04620337721414
      ],
      [
        "▁aandacht",
        -9.04721851319812
      ],
      [
        "▁Jan",
        -9.047877405548686
      ],
      [
        "▁producten",
        -9.048765534088195
      ],
      [
        "P",
        -9.050967684183458
      ],
      [
        "▁klein",
        -9.05138658615638
      ],
      [
        "betekent",
        -9.052064381252
      ],
      [
        "▁beide",
        -9.052932088962775
      ],
      [
        "▁Noord",
        -9.053235649858488
      ],
      [
        "▁kwaliteit",
        -9.053654876374962
      ],
      [
        "▁valt",
        -9.055452402079585
      ],
      [
        "▁eten",
        -9.056265036230592
      ],
      [
        "▁zag",
        -9.056827063251214
      ],
      [
        "son",
        -9.058613110119598
      ],
      [
        "▁kennis",
        -9.059290577707088
      ],
      [
        "▁Wie",
        -9.06036690181656
      ],
      [
        "▁zoveel",
        -9.063340633969185
      ],
      [
        "▁bleek",
        -9.063812940150088
      ],
      [
        "▁januari",
        -9.067309883373516
      ],
      [
        "▁stelt",
        -9.06772700804103
      ],
      [
        "▁zaak",
        -9.06949301922988
      ],
      [
        "▁belang",
        -9.069505601112974
      ],
      [
        "▁gelijk",
        -9.070140834902304
      ],
      [
        "▁dinsdag",
        -9.070217946084597
      ],
      [
        "▁periode",
        -9.071138801181757
      ],
      [
        "▁waarop",
        -9.071424475283717
      ],
      [
        "▁voorzien",
        -9.071488027202529
      ],
      [
        "▁financiële",
        -9.07189093145846
      ],
      [
        "▁kort",
        -9.072641561679296
      ],
      [
        "▁plek",
        -9.073534739941394
      ],
      [
        "▁doel",
        -9.0736184365978
      ],
      [
        "▁langer",
        -9.077283631954186
      ],
      [
        "▁voorkomen",
        -9.083001336874776
      ],
      [
        "▁woning",
        -9.083128139230476
      ],
      [
        "▁moeder",
        -9.08443429278014
      ],
      [
        "▁Rotterdam",
        -9.086981418790318
      ],
      [
        "▁plan",
        -9.090326885851312
      ],
      [
        "▁stuk",
        -9.090725343674832
      ],
      [
        "wel",
        -9.091035852024005
      ],
      [
        "▁september",
        -9.091083456882483
      ],
      [
        "▁kunst",
        -9.094307508205436
      ],
      [
        "R",
        -9.094382427142303
      ],
      [
        "▁sterk",
        -9.094950359682771
      ],
      [
        "▁volledig",
        -9.095445690285755
      ],
      [
        "▁zes",
        -9.097819149913557
      ],
      [
        "▁team",
        -9.100990695782134
      ],
      [
        "▁Britse",
        -9.102874861714584
      ],
      [
        "voor",
        -9.104109648508931
      ],
      [
        "waarmee",
        -9.104331297451983
      ],
      [
        "▁toekomst",
        -9.10477603743566
      ],
      [
        "▁partijen",
        -9.10865436076178
      ],
      [
        "▁zomer",
        -9.1109725953718
      ],
      [
        "▁lopen",
        -9.112980573665824
      ],
      [
        "▁vervolgens",
        -9.1153738698001
      ],
      [
        "gaan",
        -9.117929156882411
      ],
      [
        "▁betalen",
        -9.122264208852112
      ],
      [
        "▁ieder",
        -9.122389679833082
      ],
      [
        "helft",
        -9.122939847463051
      ],
      [
        "▁Duitsland",
        -9.12465960676503
      ],
      [
        "▁overheid",
        -9.125528161298751
      ],
      [
        "▁hoger",
        -9.12633709362586
      ],
      [
        "▁zichzelf",
        -9.127694576937229
      ],
      [
        "ervoor",
        -9.128439016604174
      ],
      [
        "▁Tweede",
        -9.1293128218535
      ],
      [
        "▁Onder",
        -9.132227288298864
      ],
      [
        "▁terecht",
        -9.1324484326565
      ],
      [
        "co",
        -9.132587306857843
      ],
      [
        "▁bezig",
        -9.133569277075472
      ],
      [
        "Z",
        -9.134428544652383
      ],
      [
        "▁beschikbaar",
        -9.135793243855558
      ],
      [
        "▁buurt",
        -9.136971781102137
      ],
      [
        "▁Franse",
        -9.137726423957584
      ],
      [
        "▁kiezen",
        -9.137943397438733
      ],
      [
        "▁juni",
        -9.139414274234223
      ],
      [
        "▁Z",
        -9.14053720204977
      ],
      [
        "▁komende",
        -9.14145810442738
      ],
      [
        "nadat",
        -9.141684037732269
      ],
      [
        "▁Is",
        -9.142254299975338
      ],
      [
        "▁risico",
        -9.143039688645867
      ],
      [
        "▁keuze",
        -9.147600724292984
      ],
      [
        "▁internationale",
        -9.148966074601065
      ],
      [
        "▁punten",
        -9.150662600185996
      ],
      [
        "lijk",
        -9.150866951759294
      ],
      [
        "▁neer",
        -9.155069973437405
      ],
      [
        "gezegd",
        -9.155597681460153
      ],
      [
        "▁precies",
        -9.156813234872669
      ],
      [
        "▁rekening",
        -9.157328866038984
      ],
      [
        "▁nieuws",
        -9.158899795148333
      ],
      [
        "▁ouders",
        -9.159283622444898
      ],
      [
        "Verenigde",
        -9.160499745620728
      ],
      [
        "▁zin",
        -9.162720490105166
      ],
      [
        "▁wist",
        -9.163298854462068
      ],
      [
        "▁Alle",
        -9.163354182927732
      ],
      [
        "▁diverse",
        -9.16473071808102
      ],
      [
        "▁vroeg",
        -9.164790851062287
      ],
      [
        "▁strijd",
        -9.166106204783858
      ],
      [
        "ooit",
        -9.167547173487918
      ],
      [
        "daarmee",
        -9.168119704627752
      ],
      [
        "▁VS",
        -9.16850693234706
      ],
      [
        "▁uiteindelijk",
        -9.171289054363651
      ],
      [
        "▁rechter",
        -9.171326442421714
      ],
      [
        "▁daarna",
        -9.171359593529136
      ],
      [
        "▁hulp",
        -9.173565992155847
      ],
      [
        "gelegd",
        -9.175979015715638
      ],
      [
        "▁bedrag",
        -9.176532437555696
      ],
      [
        "▁eeuw",
        -9.17743134126548
      ],
      [
        "▁sociale",
        -9.17843070037606
      ],
      [
        "▁betrokken",
        -9.179075368506297
      ],
      [
        "▁New",
        -9.180723441677152
      ],
      [
        "▁Toen",
        -9.182365544146531
      ],
      [
        "▁einde",
        -9.18242459316185
      ],
      [
        "▁april",
        -9.184894985335596
      ],
      [
        "▁half",
        -9.185481418731287
      ],
      [
        "ch",
        -9.189115309218929
      ],
      [
        "▁zat",
        -9.189576795665628
      ],
      [
        "▁acht",
        -9.189606125142856
      ],
      [
        "▁belangrijke",
        -9.190374669539343
      ],
      [
        "▁winst",
        -9.190780793966969
      ],
      [
        "komen",
        -9.1928712140861
      ],
      [
        "▁hard",
        -9.19294667896097
      ],
      [
        "bedrijf",
        -9.193690810646174
      ],
      [
        "▁product",
        -9.195455460035268
      ],
      [
        "▁wedstrijd",
        -9.196197261983418
      ],
      [
        "▁steun",
        -9.197044616624224
      ],
      [
        "▁ervaring",
        -9.198180114796454
      ],
      [
        "▁juiste",
        -9.204540587632115
      ],
      [
        "▁waarvan",
        -9.20546086903196
      ],
      [
        "▁project",
        -9.207550182936776
      ],
      [
        "▁oktober",
        -9.210144336408437
      ],
      [
        "▁dingen",
        -9.210330287966778
      ],
      [
        "▁sport",
        -9.212100716904526
      ],
      [
        "jullie",
        -9.21447546398777
      ],
      [
        "▁begint",
        -9.216574665352695
      ],
      [
        "ken",
        -9.217592028890278
      ],
      [
        "▁jou",
        -9.218211514052266
      ],
      [
        "▁EU",
        -9.218884136933251
      ],
      [
        "▁meter",
        -9.221916522916972
      ],
      [
        "▁samenwerking",
        -9.22225215520054
      ],
      [
        "▁bestaan",
        -9.223693698388512
      ],
      [
        "▁idee",
        -9.225915585710975
      ],
      [
        "▁video",
        -9.225945182671143
      ],
      [
        "Wanneer",
        -9.226091721281191
      ],
      [
        "horen",
        -9.22808198180656
      ],
      [
        "dag",
        -9.229463673663496
      ],
      [
        "▁maart",
        -9.230009020108302
      ],
      [
        "▁denk",
        -9.230310756729548
      ],
      [
        "af",
        -9.231234290489416
      ],
      [
        "▁gulden",
        -9.231875194544306
      ],
      [
        "▁rest",
        -9.232005062291298
      ],
      [
        "▁jonge",
        -9.234264024052775
      ],
      [
        "▁handen",
        -9.235858045076965
      ],
      [
        "▁groei",
        -9.236549357430793
      ],
      [
        "▁politiek",
        -9.236553233777435
      ],
      [
        "▁gevolg",
        -9.237603650924628
      ],
      [
        "▁vader",
        -9.237620669257176
      ],
      [
        "▁gevonden",
        -9.238023223817724
      ],
      [
        "gegaan",
        -9.239622282981854
      ],
      [
        "▁waarom",
        -9.24026493094068
      ],
      [
        "▁meerdere",
        -9.240869381906377
      ],
      [
        "▁korte",
        -9.241541266871083
      ],
      [
        "▁lucht",
        -9.24366117166744
      ],
      [
        "▁beginnen",
        -9.243968041395728
      ],
      [
        "▁geldt",
        -9.24593984614652
      ],
      [
        "meldt",
        -9.246400184935672
      ],
      [
        "geschreven",
        -9.24855832242628
      ],
      [
        "▁onderwijs",
        -9.249725074964244
      ],
      [
        "▁nummer",
        -9.250425513754571
      ],
      [
        "▁Staten",
        -9.250528177456683
      ],
      [
        "▁juli",
        -9.254649558572575
      ],
      [
        "▁Haag",
        -9.256163717180064
      ],
      [
        "▁dienst",
        -9.256432224418557
      ],
      [
        "▁boeken",
        -9.25799116761881
      ],
      [
        "▁zie",
        -9.25920349953228
      ],
      [
        "▁anderen",
        -9.25981612154602
      ],
      [
        "▁speelt",
        -9.260354367437897
      ],
      [
        "▁december",
        -9.262817207032366
      ],
      [
        "▁publiek",
        -9.262964824395686
      ],
      [
        "▁bepaalde",
        -9.263728632148784
      ],
      [
        "▁kwamen",
        -9.264748350587771
      ],
      [
        "▁hart",
        -9.264949210847703
      ],
      [
        "▁geheel",
        -9.266226045571626
      ],
      [
        "Tijdens",
        -9.266235204503664
      ],
      [
        "▁Re",
        -9.267785103362224
      ],
      [
        "▁situatie",
        -9.27017758276333
      ],
      [
        "▁belangrijkste",
        -9.271064935944167
      ],
      [
        "▁ministerie",
        -9.27139283392665
      ],
      [
        "vanwege",
        -9.27248220585609
      ],
      [
        "▁club",
        -9.272678498026178
      ],
      [
        "▁waarschijnlijk",
        -9.274775843610234
      ],
      [
        "▁kilometer",
        -9.276871680045796
      ],
      [
        "▁afstand",
        -9.277022672205714
      ],
      [
        "▁volgen",
        -9.28140533082406
      ],
      [
        "▁daarbij",
        -9.281479803515936
      ],
      [
        "▁schrijft",
        -9.281829616533177
      ],
      [
        "▁november",
        -9.28357111288046
      ],
      [
        "▁kost",
        -9.284295805861891
      ],
      [
        "▁Toch",
        -9.285318002007394
      ],
      [
        "loos",
        -9.287832401836004
      ],
      [
        "isch",
        -9.29110730787028
      ],
      [
        "▁Ja",
        -9.291466169523808
      ],
      [
        "▁Veel",
        -9.293528287714937
      ],
      [
        "genomen",
        -9.293696153610732
      ],
      [
        "▁meteen",
        -9.294595988239712
      ],
      [
        "▁plaatsen",
        -9.29514997941456
      ],
      [
        "per",
        -9.297372882267815
      ],
      [
        "▁gegeven",
        -9.298275308544946
      ],
      [
        "▁kleur",
        -9.298331692714823
      ],
      [
        "▁rust",
        -9.298331983041304
      ],
      [
        "▁personen",
        -9.298509983200052
      ],
      [
        "▁Utrecht",
        -9.299710882359284
      ],
      [
        "▁reis",
        -9.300122213910138
      ],
      [
        "▁zorgt",
        -9.300921192674004
      ],
      [
        "voeren",
        -9.3010572172327
      ],
      [
        "▁gevoel",
        -9.303799473109947
      ],
      [
        "▁ervan",
        -9.306043639973804
      ],
      [
        "aal",
        -9.306844715620825
      ],
      [
        "▁leden",
        -9.308362761951546
      ],
      [
        "▁woordvoerder",
        -9.308660627854936
      ],
      [
        "programma",
        -9.308702919156143
      ],
      [
        "straat",
        -9.309233006195448
      ],
      [
        "▁Tot",
        -9.310275487923173
      ],
      [
        "▁leren",
        -9.314039620291474
      ],
      [
        "▁La",
        -9.314467895292426
      ],
      [
        "▁prijzen",
        -9.314783167064478
      ],
      [
        "▁tuin",
        -9.316444494264704
      ],
      [
        "▁waarde",
        -9.316876910001971
      ],
      [
        "▁succes",
        -9.318086752908458
      ],
      [
        "▁lezen",
        -9.318429589800488
      ],
      [
        "▁hoogte",
        -9.319532174013666
      ],
      [
        "▁Le",
        -9.319772013763153
      ],
      [
        "VVD",
        -9.320103097895698
      ],
      [
        "▁collega",
        -9.321572141881475
      ],
      [
        "gevraagd",
        -9.321848233968566
      ],
      [
        "▁her",
        -9.322335764687432
      ],
      [
        "▁regio",
        -9.324796487711437
      ],
      [
        "▁kant",
        -9.325336676879164
      ],
      [
        "▁China",
        -9.3263105569906
      ],
      [
        "▁zoeken",
        -9.326605756174413
      ],
      [
        "ly",
        -9.327566247364526
      ],
      [
        "▁won",
        -9.3279913186851
      ],
      [
        "▁Frankrijk",
        -9.32801128041666
      ],
      [
        "▁begon",
        -9.331582046902763
      ],
      [
        "▁gaf",
        -9.331898787105962
      ],
      [
        "zelf",
        -9.33208790826569
      ],
      [
        "up",
        -9.33267834440732
      ],
      [
        "▁klaar",
        -9.332752040721765
      ],
      [
        "▁voldoende",
        -9.334723741553992
      ],
      [
        "▁mogelijkheden",
        -9.335320404272466
      ],
      [
        "▁gesprek",
        -9.337779630275715
      ],
      [
        "▁genomen",
        -9.337864944339566
      ],
      [
        "▁aanwezig",
        -9.33874899013784
      ],
      [
        "▁bezoek",
        -9.340449762494574
      ],
      [
        "▁actie",
        -9.34136231168226
      ],
      [
        "▁economische",
        -9.342509601744942
      ],
      [
        "▁gehouden",
        -9.34315175553638
      ],
      [
        "▁pagina",
        -9.344157324189934
      ],
      [
        "▁nacht",
        -9.34423053890174
      ],
      [
        "▁ontvangen",
        -9.344598774321572
      ],
      [
        "▁gevallen",
        -9.344925867776636
      ],
      [
        "▁Waar",
        -9.345622842116471
      ],
      [
        "gehad",
        -9.346601718677125
      ],
      [
        "avond",
        -9.35017436205472
      ],
      [
        "▁ontwikkeling",
        -9.350337282785356
      ],
      [
        "▁krant",
        -9.352253963805463
      ],
      [
        "*",
        -9.35554423313992
      ],
      [
        "▁natuur",
        -9.355643177719848
      ],
      [
        "▁geschikt",
        -9.3585694949508
      ],
      [
        "▁eenvoudig",
        -9.360585797949536
      ],
      [
        "▁heen",
        -9.36322519724956
      ],
      [
        "sche",
        -9.363320116995917
      ],
      [
        "▁woord",
        -9.36500328826796
      ],
      [
        "eerd",
        -9.366109480715954
      ],
      [
        "+",
        -9.366282771791887
      ],
      [
        "gegeven",
        -9.367689087458247
      ],
      [
        "komt",
        -9.369337823111
      ],
      [
        "▁Nederlands",
        -9.37042538842495
      ],
      [
        "heden",
        -9.371895811029432
      ],
      [
        "▁bouw",
        -9.374322681060905
      ],
      [
        "▁Bovendien",
        -9.375799317459492
      ],
      [
        "▁Want",
        -9.37754015671048
      ],
      [
        "lang",
        -9.3822786728176
      ],
      [
        "▁Ga",
        -9.383150699682462
      ],
      [
        "tijd",
        -9.383521929863162
      ],
      [
        "▁schade",
        -9.384174141731153
      ],
      [
        "▁vakantie",
        -9.38583344121759
      ],
      [
        "▁rechtbank",
        -9.386477470761754
      ],
      [
        "▁premier",
        -9.387576402343903
      ],
      [
        "▁ogen",
        -9.38810258856322
      ],
      [
        "▁konden",
        -9.388713698143034
      ],
      [
        "▁wijze",
        -9.39081964476793
      ],
      [
        "▁daarvan",
        -9.391287092812869
      ],
      [
        "▁genoemd",
        -9.39546209746566
      ],
      [
        "▁hetzelfde",
        -9.400887508138815
      ],
      [
        "▁avond",
        -9.401895412884656
      ],
      [
        "▁hoop",
        -9.401903439569791
      ],
      [
        "▁medewerkers",
        -9.40269527177664
      ],
      [
        "▁lid",
        -9.40446396921012
      ],
      [
        "▁loopt",
        -9.405081118260467
      ],
      [
        "sprake",
        -9.405376126470491
      ],
      [
        "I",
        -9.405825285351584
      ],
      [
        "hoeft",
        -9.40689624845934
      ],
      [
        "▁vormen",
        -9.407675266270006
      ],
      [
        "▁systeem",
        -9.410716554835275
      ],
      [
        "▁mede",
        -9.411469986278666
      ],
      [
        "▁advies",
        -9.413219403937534
      ],
      [
        "▁directeur",
        -9.41405371565056
      ],
      [
        "groep",
        -9.415528942770724
      ],
      [
        "▁verkoop",
        -9.415674103158446
      ],
      [
        "▁besluit",
        -9.416309531663806
      ],
      [
        "▁slag",
        -9.419529085222129
      ],
      [
        "onder",
        -9.41983654659936
      ],
      [
        "▁Zaken",
        -9.420272606911638
      ],
      [
        "▁Verder",
        -9.420492484308998
      ],
      [
        "▁richting",
        -9.420843819977652
      ],
      [
        "dragen",
        -9.421518849663563
      ],
      [
        "▁for",
        -9.422038066524893
      ],
      [
        "geboren",
        -9.422081891941568
      ],
      [
        "▁woorden",
        -9.422238336375123
      ],
      [
        "toe",
        -9.42404980620654
      ],
      [
        "▁Wel",
        -9.42582798225033
      ],
      [
        "▁lichaam",
        -9.42738749469892
      ],
      [
        "▁enkel",
        -9.427934645534783
      ],
      [
        "▁Ben",
        -9.4288390533412
      ],
      [
        "▁winkel",
        -9.431349501126649
      ],
      [
        "▁kracht",
        -9.434745599103676
      ],
      [
        "▁olie",
        -9.43504844371888
      ],
      [
        "betreft",
        -9.435379322276164
      ],
      [
        "van",
        -9.43540240413986
      ],
      [
        "▁vertelt",
        -9.437655002974427
      ],
      [
        "▁zeven",
        -9.438229314814896
      ],
      [
        "▁Google",
        -9.438500537773614
      ],
      [
        "▁site",
        -9.439836225589993
      ],
      [
        "eerde",
        -9.440881277565351
      ],
      [
        "▁werknemers",
        -9.44198806301344
      ],
      [
        "▁PvdA",
        -9.44344787041564
      ],
      [
        "▁echte",
        -9.44528211003314
      ],
      [
        "sturen",
        -9.447623529837308
      ],
      [
        "▁februari",
        -9.449710087555149
      ],
      [
        "▁Mijn",
        -9.449874843274625
      ],
      [
        "▁niveau",
        -9.451012939205128
      ],
      [
        "▁verschil",
        -9.451788712926287
      ],
      [
        "▁economie",
        -9.452615703145852
      ],
      [
        "het",
        -9.45296347195797
      ],
      [
        "▁flink",
        -9.455060305242323
      ],
      [
        "▁leiden",
        -9.455874207088598
      ],
      [
        "▁vallen",
        -9.45684422933685
      ],
      [
        "▁schreef",
        -9.460744111700985
      ],
      [
        "ë",
        -9.46246463810193
      ],
      [
        "▁oog",
        -9.463978168691346
      ],
      [
        "Daarom",
        -9.464440035397594
      ],
      [
        "Naast",
        -9.465205818974106
      ],
      [
        "▁Dus",
        -9.465918811566532
      ],
      [
        "▁Te",
        -9.46593865151171
      ],
      [
        "▁iedere",
        -9.466395123445498
      ],
      [
        "▁gezet",
        -9.467157179933055
      ],
      [
        "brengt",
        -9.469328092102286
      ],
      [
        "▁rijden",
        -9.469932156435329
      ],
      [
        "▁mens",
        -9.470835145832496
      ],
      [
        "Omdat",
        -9.473075157592472
      ],
      [
        "▁augustus",
        -9.47336115853747
      ],
      [
        "sommige",
        -9.474589892404495
      ],
      [
        "▁oplossing",
        -9.474967524936512
      ],
      [
        "▁beroep",
        -9.475106006998477
      ],
      [
        "▁schrijven",
        -9.475138249117697
      ],
      [
        "▁mogelijkheid",
        -9.480566201622274
      ],
      [
        "▁feit",
        -9.482189702718172
      ],
      [
        "▁oorlog",
        -9.483330575861777
      ],
      [
        "▁mis",
        -9.483663537546407
      ],
      [
        "als",
        -9.483979689777588
      ],
      [
        "▁functie",
        -9.485776047166592
      ],
      [
        "gekregen",
        -9.487441880405523
      ],
      [
        "mail",
        -9.488943006063662
      ],
      [
        "▁Wil",
        -9.48946748186708
      ],
      [
        "maken",
        -9.491735127133454
      ],
      [
        "▁invloed",
        -9.49182603842124
      ],
      [
        "▁los",
        -9.4937986366737
      ],
      [
        "▁viel",
        -9.495206616546506
      ],
      [
        "gezet",
        -9.495423777188863
      ],
      [
        "▁productie",
        -9.49680997752497
      ],
      [
        "▁slecht",
        -9.496816713443168
      ],
      [
        "▁stap",
        -9.497424993914189
      ],
      [
        "▁straat",
        -9.497472654995065
      ],
      [
        "▁onderdeel",
        -9.49845716246774
      ],
      [
        "▁wet",
        -9.499702306125762
      ],
      [
        "▁nam",
        -9.499860337647696
      ],
      [
        "▁ontstaan",
        -9.500557316909015
      ],
      [
        "▁makkelijk",
        -9.501024230906683
      ],
      [
        "▁termijn",
        -9.501078459618416
      ],
      [
        "▁keuken",
        -9.501613556278384
      ],
      [
        "proberen",
        -9.502024433525504
      ],
      [
        "▁dicht",
        -9.503442265762802
      ],
      [
        "▁AMSTERDAM",
        -9.50348422453792
      ],
      [
        "▁persoonlijke",
        -9.50374998813282
      ],
      [
        "▁last",
        -9.504614117180193
      ],
      [
        "markt",
        -9.50552688115861
      ],
      [
        "maal",
        -9.507293289796468
      ],
      [
        "ga",
        -9.50774524148146
      ],
      [
        "▁geschiedenis",
        -9.509162212164856
      ],
      [
        "▁leuke",
        -9.510313312439012
      ],
      [
        "▁thema",
        -9.51163556739534
      ],
      [
        "▁Meer",
        -9.512154008626922
      ],
      [
        "ling",
        -9.513307060810456
      ],
      [
        "gewerkt",
        -9.514449036565937
      ],
      [
        "▁behandeling",
        -9.514857174870295
      ],
      [
        "bleef",
        -9.515490174948877
      ],
      [
        "▁St",
        -9.51567326739126
      ],
      [
        "met",
        -9.515888006698574
      ],
      [
        "▁jongeren",
        -9.516011536073185
      ],
      [
        "▁maatregelen",
        -9.520589460178796
      ],
      [
        "▁telefoon",
        -9.521313544818351
      ],
      [
        "▁resultaat",
        -9.522476590912056
      ],
      [
        "▁omzet",
        -9.52288908213762
      ],
      [
        "daarvoor",
        -9.5232194079208
      ],
      [
        "kregen",
        -9.524947802853363
      ],
      [
        "▁studenten",
        -9.525515940810536
      ],
      [
        "▁bijzonder",
        -9.525751555396448
      ],
      [
        "rij",
        -9.526662457170284
      ],
      [
        "▁bezoekers",
        -9.526706123662864
      ],
      [
        "ring",
        -9.527767297646063
      ],
      [
        "▁wachten",
        -9.527968060956969
      ],
      [
        "▁Co",
        -9.52849822387952
      ],
      [
        "▁leeftijd",
        -9.529019684300064
      ],
      [
        "uren",
        -9.529760987314363
      ],
      [
        "▁plannen",
        -9.533016132461103
      ],
      [
        "▁Rusland",
        -9.533099274611404
      ],
      [
        "liep",
        -9.533868059636228
      ],
      [
        "▁praktijk",
        -9.533972758712396
      ],
      [
        "▁bovendien",
        -9.53431338097102
      ],
      [
        "▁brand",
        -9.534638442694746
      ],
      [
        "▁Onze",
        -9.535161963266807
      ],
      [
        "▁Sa",
        -9.535597987694077
      ],
      [
        "▁voorbij",
        -9.535966481529462
      ],
      [
        "▁persoon",
        -9.536042433660974
      ],
      [
        "air",
        -9.536173070634089
      ],
      [
        "▁gemakkelijk",
        -9.536922678993603
      ],
      [
        "Sinds",
        -9.53792608944206
      ],
      [
        "▁gebeurt",
        -9.54082040099922
      ],
      [
        "gemaakt",
        -9.54423345344568
      ],
      [
        "centrum",
        -9.545539770001104
      ],
      [
        "▁ex",
        -9.547089339648378
      ],
      [
        "▁tegenover",
        -9.547279803381269
      ],
      [
        "ding",
        -9.54782992022844
      ],
      [
        "▁NU",
        -9.547962676993093
      ],
      [
        "begonnen",
        -9.54937924573594
      ],
      [
        "recht",
        -9.55200601798682
      ],
      [
        "va",
        -9.55284927635282
      ],
      [
        "▁grens",
        -9.553772726758242
      ],
      [
        "▁lokale",
        -9.55569881414887
      ],
      [
        "▁vertrouwen",
        -9.55803453758648
      ],
      [
        "▁stemmen",
        -9.558501269681384
      ],
      [
        "▁proces",
        -9.558640115671668
      ],
      [
        "▁fiets",
        -9.55867325326385
      ],
      [
        "▁vrienden",
        -9.560009304114722
      ],
      [
        "berg",
        -9.560094835796312
      ],
      [
        "gehaald",
        -9.560269455330312
      ],
      [
        "▁prachtige",
        -9.560586793692451
      ],
      [
        "alsnog",
        -9.561715103841268
      ],
      [
        "▁verzoek",
        -9.561870807179444
      ],
      [
        "▁York",
        -9.562010565313042
      ],
      [
        "▁band",
        -9.562260654421776
      ],
      [
        "▁vak",
        -9.562544043179036
      ],
      [
        "aar",
        -9.562676678053329
      ],
      [
        "▁activiteiten",
        -9.563689578945596
      ],
      [
        "▁ploeg",
        -9.564092748752548
      ],
      [
        "▁voorzitter",
        -9.564453882779205
      ],
      [
        "Waarom",
        -9.564477808670976
      ],
      [
        "▁brief",
        -9.564644865111918
      ],
      [
        "▁bestuur",
        -9.564723371522083
      ],
      [
        "▁blij",
        -9.565403682565757
      ],
      [
        "▁banken",
        -9.565882935258232
      ],
      [
        "▁doe",
        -9.566351173353503
      ],
      [
        "▁baan",
        -9.56737049645264
      ],
      [
        "▁slot",
        -9.567685979004908
      ],
      [
        "▁klant",
        -9.568401185810842
      ],
      [
        "▁super",
        -9.568783607401995
      ],
      [
        "uur",
        -9.5704959331952
      ],
      [
        "ergens",
        -9.571177580594057
      ],
      [
        "▁past",
        -9.572329514938266
      ],
      [
        "▁regelmatig",
        -9.572849708577888
      ],
      [
        "▁antwoord",
        -9.572911066986842
      ],
      [
        "▁middel",
        -9.574166131735284
      ],
      [
        "▁he",
        -9.575923973874785
      ],
      [
        "▁kaart",
        -9.57632542874136
      ],
      [
        "▁tekst",
        -9.57636316273098
      ],
      [
        "tel",
        -9.576391976945956
      ],
      [
        "elijk",
        -9.576586133448217
      ],
      [
        "▁actief",
        -9.57683036089718
      ],
      [
        "▁twintig",
        -9.580188202318796
      ],
      [
        "▁Russische",
        -9.580236552461264
      ],
      [
        "gingen",
        -9.580623563403464
      ],
      [
        "schap",
        -9.581283136001588
      ],
      [
        "▁denkt",
        -9.581873178341526
      ],
      [
        "bereikt",
        -9.582010720098262
      ],
      [
        "▁rechts",
        -9.583214671457732
      ],
      [
        "▁huid",
        -9.584610749228672
      ],
      [
        "ingen",
        -9.584895905132166
      ],
      [
        "gekozen",
        -9.586041780923823
      ],
      [
        "▁rij",
        -9.587555971619311
      ],
      [
        "ry",
        -9.58783878449043
      ],
      [
        "meestal",
        -9.58823743666816
      ],
      [
        "▁stand",
        -9.58886471925348
      ],
      [
        "▁België",
        -9.58903030688394
      ],
      [
        "▁cijfers",
        -9.591168237651626
      ],
      [
        "▁kom",
        -9.59200123166478
      ],
      [
        "▁volgt",
        -9.594047236883627
      ],
      [
        "gebied",
        -9.594248694128536
      ],
      [
        "▁computer",
        -9.59462200442612
      ],
      [
        "▁reactie",
        -9.596714417292374
      ],
      [
        "▁rapport",
        -9.597193465543867
      ],
      [
        "▁speciale",
        -9.598568212854913
      ],
      [
        "▁regels",
        -9.599767351556771
      ],
      [
        "▁relatie",
        -9.6007563142577
      ],
      [
        "out",
        -9.6023227877418
      ],
      [
        "▁ziekenhuis",
        -9.602580792440907
      ],
      [
        "▁resultaten",
        -9.603463247834892
      ],
      [
        "▁daardoor",
        -9.605512600815674
      ],
      [
        "ië",
        -9.605844055804551
      ],
      [
        "▁krijg",
        -9.606437529064973
      ],
      [
        "▁wegens",
        -9.60762880350258
      ],
      [
        "▁verkocht",
        -9.607768713908042
      ],
      [
        "▁voorbeeld",
        -9.607958661964656
      ],
      [
        "▁merk",
        -9.608037873289504
      ],
      [
        "▁di",
        -9.608116979215582
      ],
      [
        "▁spelers",
        -9.608244901795208
      ],
      [
        "▁niemand",
        -9.608609933884765
      ],
      [
        "min",
        -9.6086855010371
      ],
      [
        "▁Pro",
        -9.608927395752485
      ],
      [
        "▁milieu",
        -9.609567238981102
      ],
      [
        "punt",
        -9.609848680283449
      ],
      [
        "voordat",
        -9.61087777789304
      ],
      [
        "▁locatie",
        -9.6112170613573
      ],
      [
        "▁West",
        -9.611518595322083
      ],
      [
        "▁combinatie",
        -9.612574900410598
      ],
      [
        "▁studie",
        -9.614166138388487
      ],
      [
        "▁Twee",
        -9.615662382486532
      ],
      [
        "▁besloten",
        -9.615889334495025
      ],
      [
        "zo",
        -9.616706532122862
      ],
      [
        "▁Facebook",
        -9.6169776691606
      ],
      [
        "▁waaronder",
        -9.61850750711029
      ],
      [
        "leden",
        -9.619628277487635
      ],
      [
        "▁dieren",
        -9.619709764246506
      ],
      [
        "pen",
        -9.619841877188954
      ],
      [
        "▁belasting",
        -9.6204913144805
      ],
      [
        "▁sprak",
        -9.62063151626876
      ],
      [
        "tal",
        -9.622490871090964
      ],
      [
        "▁kamer",
        -9.623727413014706
      ],
      [
        "▁bloed",
        -9.624441776106629
      ],
      [
        "▁midden",
        -9.625254148873935
      ],
      [
        "ant",
        -9.625663059369227
      ],
      [
        "▁vlak",
        -9.625667148972363
      ],
      [
        "▁CDA",
        -9.625836217878028
      ],
      [
        "gesproken",
        -9.628539296226087
      ],
      [
        "▁beurs",
        -9.628569572650582
      ],
      [
        "▁nauwelijks",
        -9.628903843435891
      ],
      [
        "▁laag",
        -9.630320803950497
      ],
      [
        "les",
        -9.630865651242257
      ],
      [
        "▁bedrijfs",
        -9.632148538457546
      ],
      [
        "mer",
        -9.632301933504635
      ],
      [
        "▁Ha",
        -9.633359277319064
      ],
      [
        "▁handel",
        -9.63412344797095
      ],
      [
        "▁moeite",
        -9.636707983680704
      ],
      [
        "▁voetbal",
        -9.6368476164419
      ],
      [
        "▁gevolgen",
        -9.637703379284597
      ],
      [
        "vaker",
        -9.638196014727145
      ],
      [
        "▁genieten",
        -9.63829625296403
      ],
      [
        "▁algemeen",
        -9.639681200945256
      ],
      [
        "▁Nederlanders",
        -9.641389125560368
      ],
      [
        "▁loop",
        -9.641928558718568
      ],
      [
        "▁Ajax",
        -9.642465698414794
      ],
      [
        "▁Geen",
        -9.642633589698718
      ],
      [
        "dra",
        -9.643385466243853
      ],
      [
        "▁crisis",
        -9.64362568339813
      ],
      [
        "▁titel",
        -9.643790731467702
      ],
      [
        "▁toegang",
        -9.645438430249508
      ],
      [
        "ings",
        -9.646777113757064
      ],
      [
        "▁stil",
        -9.647127771483031
      ],
      [
        "▁erop",
        -9.647650117625618
      ],
      [
        "systeem",
        -9.6496917128546
      ],
      [
        "ondanks",
        -9.65014689214411
      ],
      [
        "▁trekken",
        -9.65152627935544
      ],
      [
        "nemen",
        -9.651687523426093
      ],
      [
        "▁zoon",
        -9.653046079080632
      ],
      [
        "▁Alleen",
        -9.653389619147918
      ],
      [
        "▁name",
        -9.653533421620685
      ],
      [
        "▁aandelen",
        -9.654042155352167
      ],
      [
        "▁versie",
        -9.65690022253543
      ],
      [
        "Hoewel",
        -9.65760419330803
      ],
      [
        "▁Oost",
        -9.659226645102862
      ],
      [
        "▁Raad",
        -9.659231642591504
      ],
      [
        "▁koop",
        -9.659779971205932
      ],
      [
        "▁geweld",
        -9.660214568376862
      ],
      [
        "▁bereiken",
        -9.66080341868246
      ],
      [
        "▁verkiezingen",
        -9.661080436612115
      ],
      [
        "▁televisie",
        -9.66142213450042
      ],
      [
        "bedoeld",
        -9.661683443866716
      ],
      [
        "▁leveren",
        -9.66175737300758
      ],
      [
        "ha",
        -9.66227124139195
      ],
      [
        "▁taal",
        -9.664957139400846
      ],
      [
        "liefst",
        -9.665836342432062
      ],
      [
        "die",
        -9.667333945963945
      ],
      [
        "▁rente",
        -9.667965067641129
      ],
      [
        "▁bepaald",
        -9.66983352998924
      ],
      [
        "▁én",
        -9.670056034343846
      ],
      [
        "▁Londen",
        -9.671278614510229
      ],
      [
        "▁Parijs",
        -9.6713790812827
      ],
      [
        "▁Chinese",
        -9.672996352858148
      ],
      [
        "lijn",
        -9.673710856275877
      ],
      [
        "▁centrum",
        -9.67463403767645
      ],
      [
        "gevoerd",
        -9.675571009446468
      ],
      [
        "▁orde",
        -9.675960276327764
      ],
      [
        "▁nationale",
        -9.676184421924464
      ],
      [
        "▁spreken",
        -9.676796009617105
      ],
      [
        "▁macht",
        -9.677665977905418
      ],
      [
        "▁punt",
        -9.67773094168691
      ],
      [
        "▁geplaatst",
        -9.681123551843156
      ],
      [
        "▁verband",
        -9.681533232032006
      ],
      [
        "▁leiding",
        -9.68246178491367
      ],
      [
        "prijs",
        -9.682898613890378
      ],
      [
        "▁beleid",
        -9.683048818064972
      ],
      [
        "▁ja",
        -9.684603222405231
      ],
      [
        "maar",
        -9.684855401647829
      ],
      [
        "▁verleden",
        -9.687396025096684
      ],
      [
        "slaan",
        -9.688278514766616
      ],
      [
        "▁allerlei",
        -9.68831833146522
      ],
      [
        "▁zwaar",
        -9.688562376895812
      ],
      [
        "▁tafel",
        -9.688620363400144
      ],
      [
        "▁app",
        -9.688839077060052
      ],
      [
        "uitgevoerd",
        -9.6889054030204
      ],
      [
        "▁raad",
        -9.690364336814032
      ],
      [
        "▁stem",
        -9.690454749193496
      ],
      [
        "▁John",
        -9.691187615642049
      ],
      [
        "▁kwartaal",
        -9.6925675380835
      ],
      [
        "▁leger",
        -9.694384102896477
      ],
      [
        "▁opdracht",
        -9.69514510108931
      ],
      [
        "▁bereid",
        -9.695236640922603
      ],
      [
        "▁camera",
        -9.696419958254245
      ],
      [
        "▁verkopen",
        -9.696563440092898
      ],
      [
        "▁kennen",
        -9.697156679226444
      ],
      [
        "▁jeugd",
        -9.698540741286449
      ],
      [
        "▁gang",
        -9.698690821606151
      ],
      [
        "▁cultuur",
        -9.699999547807582
      ],
      [
        "▁dochter",
        -9.70137032593352
      ],
      [
        "▁God",
        -9.701714249113811
      ],
      [
        "▁verplicht",
        -9.702636282153112
      ],
      [
        "▁Brussel",
        -9.703258825149074
      ],
      [
        "overigens",
        -9.703976160874486
      ],
      [
        "▁bestaande",
        -9.704325017990254
      ],
      [
        "▁volgend",
        -9.704345494583508
      ],
      [
        "▁serie",
        -9.705245732118025
      ],
      [
        "▁veilig",
        -9.705979338816032
      ],
      [
        "▁levens",
        -9.707726081580589
      ],
      [
        "praten",
        -9.707858164401433
      ],
      [
        "@",
        -9.71039415060299
      ],
      [
        "In",
        -9.710939167265094
      ],
      [
        "▁fijn",
        -9.71140270534766
      ],
      [
        "ca",
        -9.712003493362625
      ],
      [
        "▁wonen",
        -9.71201721769912
      ],
      [
        "▁opgenomen",
        -9.71319563399205
      ],
      [
        "▁zon",
        -9.7162326371656
      ],
      [
        "▁dient",
        -9.717057688531684
      ],
      [
        "▁lastig",
        -9.717465629334418
      ],
      [
        "▁hield",
        -9.717913636622654
      ],
      [
        "▁gezicht",
        -9.719829642215185
      ],
      [
        "tussen",
        -9.720056153564624
      ],
      [
        "gaat",
        -9.721539176193051
      ],
      [
        "▁betaald",
        -9.721850372165852
      ],
      [
        "▁pro",
        -9.722558917023218
      ],
      [
        "▁standaard",
        -9.722845536655017
      ],
      [
        "▁geloof",
        -9.723866241197152
      ],
      [
        "jaar",
        -9.723901023172488
      ],
      [
        "▁deur",
        -9.72402783362223
      ],
      [
        "Vanaf",
        -9.724761038096062
      ],
      [
        "▁liefde",
        -9.724921533852216
      ],
      [
        "▁bekende",
        -9.724974026274497
      ],
      [
        "▁kritiek",
        -9.725331591846972
      ],
      [
        "▁vierde",
        -9.725658481584524
      ],
      [
        "▁kerk",
        -9.72584903751284
      ],
      [
        "▁Heb",
        -9.726362643279783
      ],
      [
        "mocht",
        -9.726545749498737
      ],
      [
        "▁effect",
        -9.728016999916845
      ],
      [
        "treden",
        -9.72866591549868
      ],
      [
        "ink",
        -9.729228167023235
      ],
      [
        "loze",
        -9.730301997306158
      ],
      [
        "▁negen",
        -9.730615464647588
      ],
      [
        "▁heerlijk",
        -9.730821384584305
      ],
      [
        "▁provincie",
        -9.731213961926544
      ],
      [
        "▁immers",
        -9.731697630203875
      ],
      [
        "▁kleuren",
        -9.73190232846828
      ],
      [
        "▁gebruikers",
        -9.73359935901586
      ],
      [
        "geven",
        -9.73422939793655
      ],
      [
        "ger",
        -9.735164340663404
      ],
      [
        "▁zet",
        -9.735848710278017
      ],
      [
        "▁VN",
        -9.736455612161816
      ],
      [
        "U",
        -9.739784132413474
      ],
      [
        "▁zul",
        -9.740289897860054
      ],
      [
        "▁verlies",
        -9.740714518635224
      ],
      [
        "▁lijst",
        -9.741480703259604
      ],
      [
        "▁akkoord",
        -9.74285995511478
      ],
      [
        "▁weekend",
        -9.74353639893441
      ],
      [
        "▁optreden",
        -9.745562453585547
      ],
      [
        "▁bekijken",
        -9.745600972218412
      ],
      [
        "val",
        -9.746869377627066
      ],
      [
        "▁gemiddelde",
        -9.74749838553207
      ],
      [
        "stelde",
        -9.74762944889493
      ],
      [
        "oor",
        -9.747860484604828
      ],
      [
        "we",
        -9.748748405397016
      ],
      [
        "▁diensten",
        -9.749552770753937
      ],
      [
        "▁kinder",
        -9.750190847767351
      ],
      [
        "▁vraagt",
        -9.752401606607837
      ],
      [
        "ic",
        -9.75241210210354
      ],
      [
        "▁Groningen",
        -9.75244282754192
      ],
      [
        "gespeeld",
        -9.755886311714804
      ],
      [
        "▁vaste",
        -9.756418426099389
      ],
      [
        "age",
        -9.756718244913078
      ],
      [
        "▁koers",
        -9.75702272446074
      ],
      [
        "zelfde",
        -9.759098440037857
      ],
      [
        "▁Ma",
        -9.759222121544838
      ],
      [
        "▁Belgische",
        -9.759757124353426
      ],
      [
        "▁controle",
        -9.760010557125756
      ],
      [
        "leek",
        -9.760372298219608
      ],
      [
        "▁overleden",
        -9.761197184946507
      ],
      [
        "vrijwel",
        -9.762795435098656
      ],
      [
        "▁zwarte",
        -9.764298678231066
      ],
      [
        "stond",
        -9.766241513479692
      ],
      [
        "veld",
        -9.766430158705685
      ],
      [
        "▁Net",
        -9.76655376793676
      ],
      [
        "▁wijn",
        -9.766761389656264
      ],
      [
        "▁Mo",
        -9.767955361273472
      ],
      [
        "ba",
        -9.768515390232778
      ],
      [
        "▁anti",
        -9.771288448091047
      ],
      [
        "bracht",
        -9.771918860922831
      ],
      [
        "onlangs",
        -9.773143753770125
      ],
      [
        "dacht",
        -9.77408321977964
      ],
      [
        "▁positie",
        -9.775884197198588
      ],
      [
        "▁bevolking",
        -9.775979653410982
      ],
      [
        "▁prima",
        -9.77629769712176
      ],
      [
        "▁vervangen",
        -9.776547320227609
      ],
      [
        "▁personeel",
        -9.776909640800268
      ],
      [
        "▁moderne",
        -9.777521651373572
      ],
      [
        "▁overleg",
        -9.77887367484086
      ],
      [
        "▁wind",
        -9.779044963170469
      ],
      [
        "▁buitenlandse",
        -9.779642877985404
      ],
      [
        "legt",
        -9.78016280315634
      ],
      [
        "▁kent",
        -9.780906493894603
      ],
      [
        "▁NRC",
        -9.781895073133503
      ],
      [
        "▁zwart",
        -9.782377067357242
      ],
      [
        "▁speelde",
        -9.78272597252723
      ],
      [
        "▁winter",
        -9.783833409745927
      ],
      [
        "zen",
        -9.784299682545855
      ],
      [
        "gebeuren",
        -9.78545670516731
      ],
      [
        "▁sluiten",
        -9.785514216413436
      ],
      [
        "▁vertellen",
        -9.786527242901132
      ],
      [
        "▁ronde",
        -9.786958372896605
      ],
      [
        "ren",
        -9.788060472493903
      ],
      [
        "▁beslissing",
        -9.788308050149787
      ],
      [
        "▁hoogste",
        -9.789229879344246
      ],
      [
        "▁netwerk",
        -9.789252093364375
      ],
      [
        "▁Me",
        -9.78925312051486
      ],
      [
        "inderdaad",
        -9.789313566404545
      ],
      [
        "▁mogelijke",
        -9.789844054252397
      ],
      [
        "▁gemiddeld",
        -9.789923441995905
      ],
      [
        "organisatie",
        -9.791766346299331
      ],
      [
        "spel",
        -9.793951200990229
      ],
      [
        "▁gelegen",
        -9.794805920531838
      ],
      [
        "▁sneller",
        -9.795174183771088
      ],
      [
        "▁Paul",
        -9.796689561604856
      ],
      [
        "▁veiligheid",
        -9.796785866244266
      ],
      [
        "▁uitgebreid",
        -9.797364756398032
      ],
      [
        "▁maak",
        -9.79745729339678
      ],
      [
        "▁Amsterdamse",
        -9.79796894133877
      ],
      [
        "▁sterke",
        -9.798036333603145
      ],
      [
        "▁maximaal",
        -9.798148468725474
      ],
      [
        "ijn",
        -9.798351979325288
      ],
      [
        "▁gedrag",
        -9.799683425319706
      ],
      [
        "▁gasten",
        -9.799683481310394
      ],
      [
        "leidt",
        -9.800025586520096
      ],
      [
        "geslagen",
        -9.800149460548957
      ],
      [
        "▁parlement",
        -9.80020304668471
      ],
      [
        "▁contract",
        -9.800496467299988
      ],
      [
        "Zoals",
        -9.802416324357516
      ],
      [
        "staan",
        -9.802549854213288
      ],
      [
        "▁voormalige",
        -9.804058663516823
      ],
      [
        "▁winnen",
        -9.80418257952449
      ],
      [
        "▁beperkt",
        -9.804328117713602
      ],
      [
        "ron",
        -9.804377581122951
      ],
      [
        "beleid",
        -9.80470768670559
      ],
      [
        "▁bed",
        -9.804829012920576
      ],
      [
        "▁On",
        -9.805407795808774
      ],
      [
        "▁Frans",
        -9.80793785341198
      ],
      [
        "gelaten",
        -9.808672592534665
      ],
      [
        "vol",
        -9.80869024188532
      ],
      [
        "▁dagelijks",
        -9.810254440297507
      ],
      [
        "▁gas",
        -9.81118607630516
      ],
      [
        "voelt",
        -9.811854798438125
      ],
      [
        "he",
        -9.812496977790234
      ],
      [
        "▁model",
        -9.812678434185136
      ],
      [
        "▁patiënten",
        -9.812923752433012
      ],
      [
        "tra",
        -9.813127904352626
      ],
      [
        "▁aanbod",
        -9.814294188483084
      ],
      [
        "▁strand",
        -9.8160691357522
      ],
      [
        "▁lager",
        -9.818099915256717
      ],
      [
        "▁finale",
        -9.818148595341178
      ],
      [
        "▁leer",
        -9.8183285513755
      ],
      [
        "▁passen",
        -9.818740764438443
      ],
      [
        "▁onderzoekers",
        -9.8202639573853
      ],
      [
        "▁Li",
        -9.821275770773305
      ],
      [
        "▁software",
        -9.822202190379318
      ],
      [
        "▁voorwaarden",
        -9.823034311207154
      ],
      [
        "keren",
        -9.82332062721855
      ],
      [
        "▁gesloten",
        -9.823606145417669
      ],
      [
        "▁leerlingen",
        -9.823677047449214
      ],
      [
        "▁noemen",
        -9.824141135464156
      ],
      [
        "▁verloren",
        -9.824267231640832
      ],
      [
        "dienst",
        -9.825333156872349
      ],
      [
        "▁Apple",
        -9.82570773084442
      ],
      [
        "▁samenleving",
        -9.825960492731417
      ],
      [
        "▁verklaring",
        -9.825991914347917
      ],
      [
        "gebouwd",
        -9.826064118426856
      ],
      [
        "leven",
        -9.826920347425292
      ],
      [
        "▁voorlopig",
        -9.827071620216614
      ],
      [
        "▁X",
        -9.828022028049718
      ],
      [
        "▁Mu",
        -9.83065947631081
      ],
      [
        "▁indien",
        -9.831154290195446
      ],
      [
        "▁dertig",
        -9.83137629937647
      ],
      [
        "staat",
        -9.83264525272106
      ],
      [
        "▁Bank",
        -9.83269101509652
      ],
      [
        "▁Lo",
        -9.833395679782727
      ],
      [
        "▁Di",
        -9.833496634422318
      ],
      [
        "▁stappen",
        -9.833950070740729
      ],
      [
        "▁twaalf",
        -9.83404033570866
      ],
      [
        "▁post",
        -9.83433570456214
      ],
      [
        "▁ervaren",
        -9.834893475909158
      ],
      [
        "noemt",
        -9.83489508173729
      ],
      [
        "▁inwoners",
        -9.836318876248816
      ],
      [
        "▁uitspraak",
        -9.83700647422306
      ],
      [
        "▁koffie",
        -9.837265711088357
      ],
      [
        "gang",
        -9.837752952065264
      ],
      [
        "Eerder",
        -9.837780973558043
      ],
      [
        "▁gemeenten",
        -9.838060706376424
      ],
      [
        "▁Daarna",
        -9.838716029141368
      ],
      [
        "▁bijzondere",
        -9.839639326313378
      ],
      [
        "▁Trump",
        -9.840965983250552
      ],
      [
        "▁vroeger",
        -9.841205055095578
      ],
      [
        "Vooral",
        -9.841241568023802
      ],
      [
        "▁vrije",
        -9.841968310302592
      ],
      [
        "▁openbaar",
        -9.8424058286461
      ],
      [
        "onderzoek",
        -9.842836544288268
      ],
      [
        "park",
        -9.84328289604368
      ],
      [
        "▁heet",
        -9.844803276365203
      ],
      [
        "▁FC",
        -9.844992407552262
      ],
      [
        "▁eisen",
        -9.845548784126445
      ],
      [
        "▁woon",
        -9.84590580709753
      ],
      [
        "leider",
        -9.846168747848314
      ],
      [
        "▁opleiding",
        -9.846283079383776
      ],
      [
        "▁commissie",
        -9.84707116589504
      ],
      [
        "▁Commissie",
        -9.847611664931769
      ],
      [
        "▁eigenaar",
        -9.847850128112489
      ],
      [
        "▁liever",
        -9.849193466663769
      ],
      [
        "▁discussie",
        -9.849346752554794
      ],
      [
        "▁zware",
        -9.8520048420296
      ],
      [
        "▁buitenland",
        -9.852784432732436
      ],
      [
        "▁kop",
        -9.852828931439255
      ],
      [
        "▁vis",
        -9.854590237101345
      ],
      [
        "getrokken",
        -9.854923190643904
      ],
      [
        "▁Nog",
        -9.855355821393552
      ],
      [
        "▁bevat",
        -9.855610862589929
      ],
      [
        "▁Bo",
        -9.857020526271551
      ],
      [
        "▁verdachte",
        -9.85726143244359
      ],
      [
        "▁Peter",
        -9.858026079407615
      ],
      [
        "▁namen",
        -9.85872869935164
      ],
      [
        "▁lag",
        -9.859190240999252
      ],
      [
        "▁gericht",
        -9.859567421789786
      ],
      [
        "elijke",
        -9.85985136074374
      ],
      [
        "▁steden",
        -9.860140318254729
      ],
      [
        "▁straf",
        -9.860315811131647
      ],
      [
        "▁service",
        -9.860337151791384
      ],
      [
        "Neem",
        -9.860979644701828
      ],
      [
        "▁wereldwijd",
        -9.861321643078854
      ],
      [
        "▁burgers",
        -9.8624193887793
      ],
      [
        "▁Unie",
        -9.865371418714426
      ],
      [
        "gebaseerd",
        -9.86574866086861
      ],
      [
        "regeling",
        -9.866269912540284
      ],
      [
        "▁links",
        -9.86763859404813
      ],
      [
        "▁ontwikkelen",
        -9.868079327675623
      ],
      [
        "boek",
        -9.869357135613852
      ],
      [
        "▁Ra",
        -9.8697016721112
      ],
      [
        "slag",
        -9.870889499245417
      ],
      [
        "▁overeenkomst",
        -9.871160300625974
      ],
      [
        "▁veranderen",
        -9.871340493652172
      ],
      [
        "▁sfeer",
        -9.871661419701612
      ],
      [
        "▁Italiaanse",
        -9.873565895167108
      ],
      [
        "ok",
        -9.87571144415728
      ],
      [
        "▁bouwen",
        -9.877943627467625
      ],
      [
        "▁levert",
        -9.878182881250536
      ],
      [
        "▁verhalen",
        -9.87913311676586
      ],
      [
        "gel",
        -9.879363291846111
      ],
      [
        "▁witte",
        -9.879711485325783
      ],
      [
        "▁digitale",
        -9.879978424136253
      ],
      [
        "▁WK",
        -9.880051449136271
      ],
      [
        "▁enorm",
        -9.880647336267062
      ],
      [
        "ler",
        -9.88074720352822
      ],
      [
        "Misschien",
        -9.881587241270609
      ],
      [
        "dankzij",
        -9.881618108302703
      ],
      [
        "Als",
        -9.882088208176192
      ],
      [
        "▁voet",
        -9.88235968652629
      ],
      [
        "▁overzicht",
        -9.882360574870836
      ],
      [
        "▁lijken",
        -9.882826875579015
      ],
      [
        "plaats",
        -9.88370726340542
      ],
      [
        "▁uitvoering",
        -9.883726901631324
      ],
      [
        "▁momenteel",
        -9.883814235389757
      ],
      [
        "helpt",
        -9.884635541651615
      ],
      [
        "con",
        -9.885675867944206
      ],
      [
        "stoppen",
        -9.886070126103531
      ],
      [
        "voelen",
        -9.886150106310724
      ],
      [
        "▁meerderheid",
        -9.88673714446413
      ],
      [
        "▁beelden",
        -9.887654110633822
      ],
      [
        "▁Groot",
        -9.888969478080046
      ],
      [
        "▁Pas",
        -9.889144033580086
      ],
      [
        "anse",
        -9.890476165555798
      ],
      [
        "▁Ten",
        -9.891473266669982
      ],
      [
        "gaande",
        -9.891673355513316
      ],
      [
        "▁stijl",
        -9.892220019088434
      ],
      [
        "▁burgemeester",
        -9.892732921804056
      ],
      [
        "▁El",
        -9.89289687432994
      ],
      [
        "▁raakt",
        -9.8930985982502
      ],
      [
        "▁honderd",
        -9.893621717434629
      ],
      [
        "▁type",
        -9.893970770713752
      ],
      [
        "▁ontwerp",
        -9.895157462310433
      ],
      [
        "Dat",
        -9.89551463300498
      ],
      [
        "jezelf",
        -9.89613375473291
      ],
      [
        "▁gelukkig",
        -9.897896604070636
      ],
      [
        "brengen",
        -9.898009866986673
      ],
      [
        "genoten",
        -9.898147695441786
      ],
      [
        "kosten",
        -9.898161819102963
      ],
      [
        "▁kwijt",
        -9.898560546633158
      ],
      [
        "▁materiaal",
        -9.90106685379581
      ],
      [
        "▁partner",
        -9.901629879320584
      ],
      [
        "aanleiding",
        -9.902149423551432
      ],
      [
        "▁speciaal",
        -9.902218758410234
      ],
      [
        "▁Sch",
        -9.90239658995208
      ],
      [
        "▁No",
        -9.902811758766784
      ],
      [
        "gestuurd",
        -9.905011718066593
      ],
      [
        "▁Europees",
        -9.905422282565132
      ],
      [
        "▁baby",
        -9.905866651220927
      ],
      [
        "▁Haar",
        -9.90659853407788
      ],
      [
        "▁ziekte",
        -9.909729449877528
      ],
      [
        "bo",
        -9.909775902665135
      ],
      [
        "▁motor",
        -9.910558020299735
      ],
      [
        "▁gek",
        -9.910776437758798
      ],
      [
        "eur",
        -9.911232245138288
      ],
      [
        "tevens",
        -9.911249748923112
      ],
      [
        "▁onderneming",
        -9.91159439121154
      ],
      [
        "handel",
        -9.911614965860098
      ],
      [
        "lig",
        -9.912456908180053
      ],
      [
        "▁hoor",
        -9.912468927055128
      ],
      [
        "▁hiervoor",
        -9.912924710648053
      ],
      [
        "ruimte",
        -9.91333352510159
      ],
      [
        "▁dak",
        -9.914673677302517
      ],
      [
        "ering",
        -9.914690320167386
      ],
      [
        "▁indruk",
        -9.914793085798795
      ],
      [
        "aat",
        -9.915296684608464
      ],
      [
        "▁adres",
        -9.915537950199106
      ],
      [
        "▁betere",
        -9.915613027882731
      ],
      [
        "▁films",
        -9.915715931681849
      ],
      [
        "▁inhoud",
        -9.916629508470349
      ],
      [
        "▁maat",
        -9.917742014582744
      ],
      [
        "▁Via",
        -9.918393448278232
      ],
      [
        "kamer",
        -9.91885404593294
      ],
      [
        "▁perfect",
        -9.9193661271002
      ],
      [
        "▁duur",
        -9.919485614961127
      ],
      [
        "plein",
        -9.919867050795563
      ],
      [
        "▁inzicht",
        -9.920228437435178
      ],
      [
        "▁cm",
        -9.920404620395065
      ],
      [
        "▁overal",
        -9.920451359259758
      ],
      [
        "▁ontwikkeld",
        -9.920803367094196
      ],
      [
        "▁rode",
        -9.921019530566427
      ],
      [
        "▁lijn",
        -9.9227277470374
      ],
      [
        "▁afhankelijk",
        -9.92393071764956
      ],
      [
        "▁warm",
        -9.92568598412821
      ],
      [
        "▁rustig",
        -9.927328532801573
      ],
      [
        "isme",
        -9.927725768961391
      ],
      [
        "▁He",
        -9.92788250399042
      ],
      [
        "▁regel",
        -9.92792313109315
      ],
      [
        "▁hoofdstad",
        -9.928140444751588
      ],
      [
        "▁Ta",
        -9.9290223258427
      ],
      [
        "bouw",
        -9.930489079902427
      ],
      [
        "▁mening",
        -9.930784422703011
      ],
      [
        "▁Italië",
        -9.93188396518402
      ],
      [
        "beschikt",
        -9.932119303415808
      ],
      [
        "▁vuur",
        -9.93277572577616
      ],
      [
        "▁kantoor",
        -9.93359619446675
      ],
      [
        "erende",
        -9.93399873571246
      ],
      [
        "ment",
        -9.934013140939085
      ],
      [
        "▁slachtoffers",
        -9.93409945914176
      ],
      [
        "▁centrale",
        -9.934244614790062
      ],
      [
        "▁voedsel",
        -9.934948404238648
      ],
      [
        "▁twijfel",
        -9.936368427416364
      ],
      [
        "▁Irak",
        -9.937204176974523
      ],
      [
        "▁gebouw",
        -9.937540792817144
      ],
      [
        "▁deelnemers",
        -9.938725241338236
      ],
      [
        "bedrijven",
        -9.941089262089283
      ],
      [
        "mans",
        -9.941277662359584
      ],
      [
        "▁hogere",
        -9.94154307668991
      ],
      [
        "▁advocaat",
        -9.942446072110858
      ],
      [
        "▁bewijs",
        -9.943103791876297
      ],
      [
        "▁halve",
        -9.943704873614225
      ],
      [
        "▁Jo",
        -9.943884099500249
      ],
      [
        "▁merken",
        -9.944164101698552
      ],
      [
        "ber",
        -9.944296849381995
      ],
      [
        "stelling",
        -9.944573314780897
      ],
      [
        "▁smaak",
        -9.945807991612169
      ],
      [
        "stand",
        -9.946026036529071
      ],
      [
        "naast",
        -9.946034038280857
      ],
      [
        "art",
        -9.946194878796751
      ],
      [
        "▁Amerika",
        -9.946739076141055
      ],
      [
        "▁Spanje",
        -9.946828024014703
      ],
      [
        "▁soorten",
        -9.946886412218667
      ],
      [
        "▁scholen",
        -9.947046019144276
      ],
      [
        "▁Willem",
        -9.947564608373792
      ],
      [
        "▁toepassing",
        -9.949290319038084
      ],
      [
        "▁verwachten",
        -9.950188196390968
      ],
      [
        "▁Turkije",
        -9.950458643611029
      ],
      [
        "▁prachtig",
        -9.95176038755874
      ],
      [
        "▁recente",
        -9.952368661013455
      ],
      [
        "▁arbeids",
        -9.952969207506737
      ],
      [
        "▁hoeveel",
        -9.952973472935538
      ],
      [
        "▁you",
        -9.95314491136809
      ],
      [
        "▁League",
        -9.954068108649482
      ],
      [
        "bel",
        -9.954302496404702
      ],
      [
        "▁lage",
        -9.955462863243255
      ],
      [
        "gepakt",
        -9.95695535885008
      ],
      [
        "▁hoort",
        -9.95825203611634
      ],
      [
        "▁Con",
        -9.959138000631626
      ],
      [
        "▁bal",
        -9.95977060050996
      ],
      [
        "▁simpel",
        -9.960123788398132
      ],
      [
        "▁feest",
        -9.960236157937796
      ],
      [
        "ook",
        -9.96027307135492
      ],
      [
        "▁restaurant",
        -9.9603028659212
      ],
      [
        "▁la",
        -9.960796275052546
      ],
      [
        "▁omstandigheden",
        -9.961480547027158
      ],
      [
        "▁bewoners",
        -9.96387858847782
      ],
      [
        "▁aandeel",
        -9.96395838576834
      ],
      [
        "▁Kan",
        -9.964729204476036
      ],
      [
        "▁glas",
        -9.964969818225333
      ],
      [
        "rie",
        -9.96530098916282
      ],
      [
        "VV",
        -9.96581399523614
      ],
      [
        "▁dergelijke",
        -9.966865868877452
      ],
      [
        "▁opzichte",
        -9.96828673790348
      ],
      [
        "Hotels",
        -9.968670921631182
      ],
      [
        "raden",
        -9.968784440036488
      ],
      [
        "▁beweging",
        -9.969333074238683
      ],
      [
        "bepalen",
        -9.970192857464864
      ],
      [
        "▁voorstel",
        -9.9703489091351
      ],
      [
        "landen",
        -9.970412269573142
      ],
      [
        "▁verbeteren",
        -9.970507530355084
      ],
      [
        "▁Laat",
        -9.97113733553194
      ],
      [
        "▁bewust",
        -9.971316397106786
      ],
      [
        "▁kwestie",
        -9.971880376228322
      ],
      [
        "▁Japan",
        -9.972049588437574
      ],
      [
        "▁afspraken",
        -9.97292372763997
      ],
      [
        "stad",
        -9.973070641415877
      ],
      [
        "▁voordeel",
        -9.973258640222234
      ],
      [
        "vullen",
        -9.974720530091918
      ],
      [
        "▁cel",
        -9.974726011110532
      ],
      [
        "▁gezin",
        -9.974822452226494
      ],
      [
        "▁vermogen",
        -9.97521447012062
      ],
      [
        "▁verwachting",
        -9.975327090397249
      ],
      [
        "ker",
        -9.975465628262848
      ],
      [
        "▁Mar",
        -9.976775118789448
      ],
      [
        "raad",
        -9.977217763330042
      ],
      [
        "houden",
        -9.97726127602918
      ],
      [
        "eveneens",
        -9.979044472295334
      ],
      [
        "▁museum",
        -9.979422774951304
      ],
      [
        "water",
        -9.979488724057944
      ],
      [
        "▁volledige",
        -9.979981355645108
      ],
      [
        "▁Du",
        -9.980058987968311
      ],
      [
        "▁Mi",
        -9.980638550134556
      ],
      [
        "▁angst",
        -9.980975158879064
      ],
      [
        "▁Nieuw",
        -9.982017888063522
      ],
      [
        "▁wensen",
        -9.983076634004448
      ],
      [
        "▁veiligheids",
        -9.983371526065792
      ],
      [
        "raken",
        -9.983856276662504
      ],
      [
        "▁schoon",
        -9.984690197281145
      ],
      [
        "geraakt",
        -9.985103076854935
      ],
      [
        "ochtend",
        -9.985389087837715
      ],
      [
        "▁Samen",
        -9.985755411672606
      ],
      [
        "▁debat",
        -9.98586945791033
      ],
      [
        "▁Ko",
        -9.986766023079031
      ],
      [
        "que",
        -9.9879478153731
      ],
      [
        "▁sector",
        -9.990182817882989
      ],
      [
        "wereld",
        -9.990717042431736
      ],
      [
        "▁Hotel",
        -9.992163309101011
      ],
      [
        "team",
        -9.99257425381127
      ],
      [
        "▁trein",
        -9.994330859524757
      ],
      [
        "meer",
        -9.994384169108056
      ],
      [
        "▁rug",
        -9.994505152983542
      ],
      [
        "▁les",
        -9.995166356457997
      ],
      [
        "▁achtergrond",
        -9.996142361534474
      ],
      [
        "rit",
        -9.996194006322511
      ],
      [
        "goed",
        -9.996708373383576
      ],
      [
        "▁persoonlijk",
        -9.997832866534267
      ],
      [
        "gewonnen",
        -9.998344073139991
      ],
      [
        "Sommige",
        -9.999367450332391
      ],
      [
        "▁tevreden",
        -9.999951136308646
      ],
      [
        "▁totale",
        -10.000047532803634
      ],
      [
        "▁Ar",
        -10.000347924039277
      ],
      [
        "▁voorkeur",
        -10.00187414522691
      ],
      [
        "▁jaarlijks",
        -10.002081299224889
      ],
      [
        "▁Hun",
        -10.004517587003637
      ],
      [
        "wet",
        -10.004540010639676
      ],
      [
        "▁kamers",
        -10.00467626892019
      ],
      [
        "enorme",
        -10.005137842307724
      ],
      [
        "▁Gu",
        -10.005203969705953
      ],
      [
        "▁justitie",
        -10.005815692341496
      ],
      [
        "▁klachten",
        -10.006286127837956
      ],
      [
        "=",
        -10.00652337959126
      ],
      [
        "▁voldoen",
        -10.007222094129943
      ],
      [
        "▁gebrek",
        -10.007434453642531
      ],
      [
        "▁kern",
        -10.00814789463403
      ],
      [
        "▁wijk",
        -10.008360280411278
      ],
      [
        "▁relatief",
        -10.009596404350368
      ],
      [
        "plan",
        -10.009922595822763
      ],
      [
        "systemen",
        -10.010138003387375
      ],
      [
        "▁betrekking",
        -10.010733221315231
      ],
      [
        "▁militaire",
        -10.010879618243225
      ],
      [
        "NV",
        -10.01122548188732
      ],
      [
        "▁Si",
        -10.01179001801839
      ],
      [
        "▁Bos",
        -10.011846970402075
      ],
      [
        "▁terrein",
        -10.012051374080892
      ],
      [
        "▁niks",
        -10.01217846742309
      ],
      [
        "▁veld",
        -10.01221473038178
      ],
      [
        "▁Af",
        -10.01253905008725
      ],
      [
        "▁vriend",
        -10.013462581190788
      ],
      [
        "▁Ho",
        -10.01440393507804
      ],
      [
        "gekocht",
        -10.016204737475531
      ],
      [
        "▁pijn",
        -10.016739765785882
      ],
      [
        "▁organisaties",
        -10.017429517053294
      ],
      [
        "▁Jong",
        -10.017436368815751
      ],
      [
        "▁Oranje",
        -10.017838810579724
      ],
      [
        "▁vrijheid",
        -10.02003596506562
      ],
      [
        "gevallen",
        -10.020984022316902
      ],
      [
        "▁Do",
        -10.0210373765248
      ],
      [
        "ier",
        -10.021758980777705
      ],
      [
        "▁aanpak",
        -10.022150416893206
      ],
      [
        "bal",
        -10.024183175007575
      ],
      [
        "▁kijk",
        -10.02467748747034
      ],
      [
        "▁Ne",
        -10.02491461941081
      ],
      [
        "▁Universiteit",
        -10.025454528314002
      ],
      [
        "▁tegenwoordig",
        -10.025720621318632
      ],
      [
        "▁vlees",
        -10.026572510136791
      ],
      [
        "▁bestellen",
        -10.027394329818245
      ],
      [
        "▁melden",
        -10.02776599453185
      ],
      [
        "▁nou",
        -10.027918048262643
      ],
      [
        "▁Huis",
        -10.028031139995504
      ],
      [
        "▁ouder",
        -10.028718009378492
      ],
      [
        "band",
        -10.029695289465336
      ],
      [
        "og",
        -10.030105518025614
      ],
      [
        "▁waard",
        -10.030204618060507
      ],
      [
        "zetten",
        -10.03073448826116
      ],
      [
        "▁spreekt",
        -10.031533845781118
      ],
      [
        "▁Engels",
        -10.032382516511426
      ],
      [
        "▁normaal",
        -10.0356773298386
      ],
      [
        "▁winkels",
        -10.035775310115486
      ],
      [
        "▁selectie",
        -10.035784885362302
      ],
      [
        "beeld",
        -10.036274513355297
      ],
      [
        "▁populair",
        -10.036664468228704
      ],
      [
        "▁Tour",
        -10.036751134894544
      ],
      [
        "▁jongens",
        -10.037695636969444
      ],
      [
        "besloot",
        -10.03784997199809
      ],
      [
        "▁dorp",
        -10.038072314908536
      ],
      [
        "zorg",
        -10.03875617610762
      ],
      [
        "▁regen",
        -10.039114233544414
      ],
      [
        "wetenschappelijk",
        -10.039207521506633
      ],
      [
        "▁vijftig",
        -10.03930468395756
      ],
      [
        "tische",
        -10.039827546889804
      ],
      [
        "▁Museum",
        -10.039945232638749
      ],
      [
        "▁kleding",
        -10.03995713072592
      ],
      [
        "▁interview",
        -10.040531694485978
      ],
      [
        "niet",
        -10.040668628758564
      ],
      [
        "▁ca",
        -10.04077344686403
      ],
      [
        "dienen",
        -10.041038964407765
      ],
      [
        "▁lees",
        -10.041111946961664
      ],
      [
        "the",
        -10.04221677394666
      ],
      [
        "lijst",
        -10.044742922874798
      ],
      [
        "verliezen",
        -10.04535079268213
      ],
      [
        "▁Ter",
        -10.045919365737268
      ],
      [
        "▁algemene",
        -10.047530686928768
      ],
      [
        "aire",
        -10.04814073067671
      ],
      [
        "▁An",
        -10.048299561497496
      ],
      [
        "Een",
        -10.048597962396231
      ],
      [
        "Turkse",
        -10.048614667691067
      ],
      [
        "plekken",
        -10.04937465646867
      ],
      [
        "che",
        -10.049528827368958
      ],
      [
        "▁game",
        -10.05035766901078
      ],
      [
        "▁inclusief",
        -10.050672332254432
      ],
      [
        "ders",
        -10.050802568533292
      ],
      [
        "▁Spaanse",
        -10.050975704930892
      ],
      [
        "ties",
        -10.051664331168135
      ],
      [
        "▁Ni",
        -10.05238273657078
      ],
      [
        "ho",
        -10.052592998920357
      ],
      [
        "▁massa",
        -10.053184204434686
      ],
      [
        "▁Lees",
        -10.053317341772129
      ],
      [
        "▁Israël",
        -10.053766890936082
      ],
      [
        "▁vervoer",
        -10.054297523163475
      ],
      [
        "voorzitter",
        -10.054760616746732
      ],
      [
        "▁nood",
        -10.055380845722764
      ],
      [
        "▁bijdrage",
        -10.0555149294035
      ],
      [
        "▁ondernemers",
        -10.05558361150872
      ],
      [
        "▁communicatie",
        -10.055721129381196
      ],
      [
        "▁slachtoffer",
        -10.055778574365023
      ],
      [
        "▁Go",
        -10.055922145110529
      ],
      [
        "wijzen",
        -10.05610239588368
      ],
      [
        "▁Elke",
        -10.056275164705848
      ],
      [
        "foto",
        -10.056359929700102
      ],
      [
        "▁Hu",
        -10.056514550575578
      ],
      [
        "▁Ca",
        -10.056533775953678
      ],
      [
        "▁vertrek",
        -10.057715934827968
      ],
      [
        "Bekijk",
        -10.05778315900458
      ],
      [
        "gehele",
        -10.05848948193504
      ],
      [
        "▁Rutte",
        -10.058607939919492
      ],
      [
        "▁with",
        -10.059566390177324
      ],
      [
        "▁Zorg",
        -10.059670448052758
      ],
      [
        "▁schuld",
        -10.059680907750302
      ],
      [
        "▁bus",
        -10.061039450350547
      ],
      [
        "meldde",
        -10.062126825879108
      ],
      [
        "▁doden",
        -10.063612209049928
      ],
      [
        "▁graden",
        -10.063731005175546
      ],
      [
        "▁Indien",
        -10.064647813987545
      ],
      [
        "iteit",
        -10.06467529833961
      ],
      [
        "baan",
        -10.064919512401271
      ],
      [
        "▁afloop",
        -10.066091362232635
      ],
      [
        "▁rondom",
        -10.066948009795372
      ],
      [
        "▁aarde",
        -10.067689270201798
      ],
      [
        "▁aangeboden",
        -10.069269020613596
      ],
      [
        "▁bekeken",
        -10.069307749545551
      ],
      [
        "▁pakken",
        -10.06931643981544
      ],
      [
        "▁So",
        -10.06969639352266
      ],
      [
        "▁test",
        -10.069904632259062
      ],
      [
        "bureau",
        -10.070137072576964
      ],
      [
        "naam",
        -10.071360169134406
      ],
      [
        "▁Mark",
        -10.074458203194324
      ],
      [
        "▁gevaar",
        -10.07483000882913
      ],
      [
        "▁afdeling",
        -10.074941281140484
      ],
      [
        "noemde",
        -10.075497438527632
      ],
      [
        "▁optie",
        -10.075977733936464
      ],
      [
        "▁kerst",
        -10.076445487979171
      ],
      [
        "▁vluchtelingen",
        -10.076791513541837
      ],
      [
        "alsof",
        -10.07740339666526
      ],
      [
        "maker",
        -10.077440152951253
      ],
      [
        "▁verbonden",
        -10.078450486537246
      ],
      [
        "▁kader",
        -10.08068069053801
      ],
      [
        "▁sociaal",
        -10.082718959527142
      ],
      [
        "steken",
        -10.082962503569094
      ],
      [
        "▁Man",
        -10.083390683122463
      ],
      [
        "▁Pa",
        -10.083520348426475
      ],
      [
        "▁Bar",
        -10.084980290502118
      ],
      [
        "ard",
        -10.085232586479444
      ],
      [
        "▁Kort",
        -10.085406760103732
      ],
      [
        "▁Ka",
        -10.085675521215997
      ],
      [
        "▁moord",
        -10.085836097983323
      ],
      [
        "leidde",
        -10.08608842226447
      ],
      [
        "uiteraard",
        -10.08639678074204
      ],
      [
        "▁snelle",
        -10.08666366330766
      ],
      [
        "▁Am",
        -10.087603611733874
      ],
      [
        "top",
        -10.087619608679228
      ],
      [
        "hangen",
        -10.087654933317328
      ],
      [
        "▁meisje",
        -10.087724221689774
      ],
      [
        "kaart",
        -10.088085830503385
      ],
      [
        "▁vlucht",
        -10.088276783429604
      ],
      [
        "▁goud",
        -10.08879226941419
      ],
      [
        "▁karakter",
        -10.08901872949899
      ],
      [
        "▁eventuele",
        -10.089042921966366
      ],
      [
        "▁protest",
        -10.08917077533941
      ],
      [
        "▁collectie",
        -10.089467527512388
      ],
      [
        "▁proef",
        -10.089553882622878
      ],
      [
        "▁ijs",
        -10.08996420764824
      ],
      [
        "▁consumenten",
        -10.089971306448106
      ],
      [
        "steeg",
        -10.091286372406303
      ],
      [
        "▁uitzicht",
        -10.09132374672436
      ],
      [
        "zie",
        -10.091815032785734
      ],
      [
        "kamp",
        -10.09183443912296
      ],
      [
        "▁positief",
        -10.091945620068666
      ],
      [
        "▁live",
        -10.092037296229428
      ],
      [
        "bank",
        -10.092218867067317
      ],
      [
        "licht",
        -10.092965047109123
      ],
      [
        "▁toestemming",
        -10.093119627426065
      ],
      [
        "hal",
        -10.09319856851396
      ],
      [
        "school",
        -10.09320953785683
      ],
      [
        "poging",
        -10.093237280927996
      ],
      [
        "▁tientallen",
        -10.093615030018572
      ],
      [
        "geen",
        -10.093884693712656
      ],
      [
        "▁Y",
        -10.09403437356576
      ],
      [
        "▁wit",
        -10.094279671859727
      ],
      [
        "hoopt",
        -10.094554160819207
      ],
      [
        "▁campagne",
        -10.094907752490846
      ],
      [
        "▁eiland",
        -10.095141167689384
      ],
      [
        "▁mond",
        -10.095251635202947
      ],
      [
        "komst",
        -10.095455385062062
      ],
      [
        "▁hotels",
        -10.095922754223894
      ],
      [
        "▁Hans",
        -10.096702196483315
      ],
      [
        "▁kijkt",
        -10.096856661477895
      ],
      [
        "gedragen",
        -10.098321138797184
      ],
      [
        "Y",
        -10.09870738820051
      ],
      [
        "▁handig",
        -10.09934636596869
      ],
      [
        "our",
        -10.099756266385636
      ],
      [
        "▁zichtbaar",
        -10.100005871229657
      ],
      [
        "pot",
        -10.10022490062219
      ],
      [
        "▁min",
        -10.100284464212788
      ],
      [
        "▁publieke",
        -10.100401138011422
      ],
      [
        "▁mobiele",
        -10.101254446557707
      ],
      [
        "Er",
        -10.102042688051084
      ],
      [
        "▁pensioen",
        -10.102065625352196
      ],
      [
        "▁klimaat",
        -10.10262434325682
      ],
      [
        "▁pand",
        -10.102691494468017
      ],
      [
        "probeert",
        -10.102796961771196
      ],
      [
        "dam",
        -10.103045160058509
      ],
      [
        "▁noodzakelijk",
        -10.103547067991714
      ],
      [
        "▁vijftien",
        -10.103713147323065
      ],
      [
        "▁Naar",
        -10.103969406599482
      ],
      [
        "▁college",
        -10.104100552822327
      ],
      [
        "▁vermeld",
        -10.104211377320508
      ],
      [
        "▁slechte",
        -10.104325500066844
      ],
      [
        "▁onderzoeken",
        -10.104586253168314
      ],
      [
        "ator",
        -10.10494068074295
      ],
      [
        "▁Stichting",
        -10.105566020090883
      ],
      [
        "index",
        -10.105941344406936
      ],
      [
        "▁verspreid",
        -10.10675166619135
      ],
      [
        "▁verschillen",
        -10.10708798290286
      ],
      [
        "▁stroom",
        -10.108449653125016
      ],
      [
        "▁sterren",
        -10.109046036190998
      ],
      [
        "hof",
        -10.109740047966056
      ],
      [
        "▁technische",
        -10.110153027947948
      ],
      [
        "huizen",
        -10.11083235766258
      ],
      [
        "haalde",
        -10.111040563594877
      ],
      [
        "▁daarop",
        -10.111060966332
      ],
      [
        "richten",
        -10.111216052140252
      ],
      [
        "Japanse",
        -10.111341267818142
      ],
      [
        "PSV",
        -10.111364990772184
      ],
      [
        "▁bezit",
        -10.111776680971332
      ],
      [
        "▁schrijver",
        -10.111797066062168
      ],
      [
        "▁uitvoeren",
        -10.113100469327248
      ],
      [
        "draagt",
        -10.115249780796768
      ],
      [
        "waarna",
        -10.11555093552032
      ],
      [
        "nummer",
        -10.1179616723418
      ],
      [
        "partij",
        -10.118155209257736
      ],
      [
        "Maar",
        -10.118172478696652
      ],
      [
        "▁onafhankelijk",
        -10.119733136648128
      ],
      [
        "toont",
        -10.12129814200843
      ],
      [
        "▁CO",
        -10.12142412034215
      ],
      [
        "are",
        -10.1221565481778
      ],
      [
        "vel",
        -10.122548774941666
      ],
      [
        "▁diep",
        -10.122656531082855
      ],
      [
        "▁betaling",
        -10.122909492801185
      ],
      [
        "genoot",
        -10.124289385622864
      ],
      [
        "▁woningen",
        -10.12593013046778
      ],
      [
        "▁plus",
        -10.12614915366896
      ],
      [
        "▁veranderd",
        -10.126450386390152
      ],
      [
        "▁verlaten",
        -10.126551336054076
      ],
      [
        "­",
        -10.12737762281544
      ],
      [
        "winkel",
        -10.127454282052952
      ],
      [
        "▁ontslag",
        -10.127613714508174
      ],
      [
        "▁hout",
        -10.12764690619081
      ],
      [
        "ation",
        -10.127792973402732
      ],
      [
        "geld",
        -10.12811919275178
      ],
      [
        "▁Per",
        -10.128462708096787
      ],
      [
        "▁badkamer",
        -10.129621991270206
      ],
      [
        "ff",
        -10.129645584069983
      ],
      [
        "▁verandering",
        -10.129777163565183
      ],
      [
        "▁reizen",
        -10.129933821711669
      ],
      [
        "▁vergeten",
        -10.131101998604745
      ],
      [
        "▁Natuurlijk",
        -10.131181923652411
      ],
      [
        "gestelde",
        -10.13186194168937
      ],
      [
        "middag",
        -10.131903334631527
      ],
      [
        "ck",
        -10.132553968613395
      ],
      [
        "▁Serv",
        -10.13273006231576
      ],
      [
        "▁album",
        -10.132912361306554
      ],
      [
        "har",
        -10.133312661994964
      ],
      [
        "veroorzaakt",
        -10.133654436881788
      ],
      [
        "▁Syrië",
        -10.133844305396806
      ],
      [
        "▁papier",
        -10.13421466667489
      ],
      [
        "▁Eindhoven",
        -10.134276084316912
      ],
      [
        "▁Minister",
        -10.134683842972168
      ],
      [
        "▁concurrentie",
        -10.13498965135849
      ],
      [
        "▁banen",
        -10.135370618583783
      ],
      [
        "▁Her",
        -10.13597918638946
      ],
      [
        "Soms",
        -10.136137312220525
      ],
      [
        "▁autoriteiten",
        -10.136242853509064
      ],
      [
        "▁Kom",
        -10.136359452021168
      ],
      [
        "▁Martin",
        -10.136886678280336
      ],
      [
        "▁werkte",
        -10.137909918838538
      ],
      [
        "▁stof",
        -10.138173075689693
      ],
      [
        "zaam",
        -10.1384611596589
      ],
      [
        "doen",
        -10.138588187831848
      ],
      [
        "▁tonen",
        -10.138723231223324
      ],
      [
        "▁onderdelen",
        -10.139521315426494
      ],
      [
        "wellicht",
        -10.13953922670698
      ],
      [
        "▁Park",
        -10.142191577438872
      ],
      [
        "▁roman",
        -10.142759730481645
      ],
      [
        "▁gezondheid",
        -10.143501811352772
      ],
      [
        "▁hangt",
        -10.143700972637358
      ],
      [
        "▁stukken",
        -10.144162958582758
      ],
      [
        "▁Pe",
        -10.144871138549345
      ],
      [
        "lopen",
        -10.145553007148909
      ],
      [
        "▁positieve",
        -10.14731407679632
      ],
      [
        "à",
        -10.147671680117249
      ],
      [
        "▁politici",
        -10.148519185019104
      ],
      [
        "▁bang",
        -10.149589879875476
      ],
      [
        "klinkt",
        -10.1500566154778
      ],
      [
        "▁Binnen",
        -10.150140947126545
      ],
      [
        "▁morgen",
        -10.150213780138168
      ],
      [
        "▁training",
        -10.150322025758658
      ],
      [
        "kant",
        -10.150892775161209
      ],
      [
        "▁Vorig",
        -10.15109805184969
      ],
      [
        "▁reclame",
        -10.15113960091461
      ],
      [
        "▁huizen",
        -10.151340126228614
      ],
      [
        "wijk",
        -10.15205585363462
      ],
      [
        "▁circ",
        -10.152110365501876
      ],
      [
        "▁neem",
        -10.15278424282285
      ],
      [
        "▁jongen",
        -10.153010573153113
      ],
      [
        "▁harde",
        -10.153782386375648
      ],
      [
        "OS",
        -10.153919864838029
      ],
      [
        "achtige",
        -10.154315596323624
      ],
      [
        "▁Nee",
        -10.155171250184948
      ],
      [
        "▁inzet",
        -10.155431330045062
      ],
      [
        "▁verblijf",
        -10.155758526805728
      ],
      [
        "gewezen",
        -10.156015605842317
      ],
      [
        "▁scherm",
        -10.156637275115775
      ],
      [
        "hierbij",
        -10.156705527536776
      ],
      [
        "▁ochtend",
        -10.157651189679074
      ],
      [
        "▁huur",
        -10.159112539560503
      ],
      [
        "▁plezier",
        -10.159991373241493
      ],
      [
        "▁Twitter",
        -10.16054748969327
      ],
      [
        "X",
        -10.161469470083548
      ],
      [
        "▁Kijk",
        -10.161495399923936
      ],
      [
        "▁verkeer",
        -10.161925455275169
      ],
      [
        "▁word",
        -10.16215665607402
      ],
      [
        "▁minuut",
        -10.162353846169166
      ],
      [
        "▁Men",
        -10.162743847314038
      ],
      [
        "▁geluid",
        -10.162899850572837
      ],
      [
        "volle",
        -10.163080739681508
      ],
      [
        "▁bestelling",
        -10.16320902373596
      ],
      [
        "▁drugs",
        -10.163594534620763
      ],
      [
        "▁speel",
        -10.163726095802955
      ],
      [
        "▁reeks",
        -10.164099771375373
      ],
      [
        "sector",
        -10.164605735330603
      ],
      [
        "maatschappij",
        -10.16467323007062
      ],
      [
        "unieke",
        -10.165661101381316
      ],
      [
        "middels",
        -10.166030532593249
      ],
      [
        "minimaal",
        -10.167152513788842
      ],
      [
        "▁Su",
        -10.167616421293284
      ],
      [
        "▁honderden",
        -10.168057075075684
      ],
      [
        "▁oordeel",
        -10.168187381540218
      ],
      [
        "▁draait",
        -10.168528728527834
      ],
      [
        "▁behoefte",
        -10.168666427528764
      ],
      [
        "zien",
        -10.169943209595022
      ],
      [
        "▁groen",
        -10.17024363808132
      ],
      [
        "bleken",
        -10.170500672945018
      ],
      [
        "▁tentoonstelling",
        -10.170710091448871
      ],
      [
        "▁leider",
        -10.17122624468465
      ],
      [
        "▁omhoog",
        -10.17170234461092
      ],
      [
        "▁duurt",
        -10.17259103289564
      ],
      [
        "▁verdienen",
        -10.172666664644357
      ],
      [
        "▁SP",
        -10.175444079944011
      ],
      [
        "bekendgemaakt",
        -10.175808297257673
      ],
      [
        "▁privé",
        -10.17584912869358
      ],
      [
        "▁luxe",
        -10.176212901377037
      ],
      [
        "bedoeling",
        -10.176995975430165
      ],
      [
        "hoewel",
        -10.177578200753464
      ],
      [
        "▁projecten",
        -10.177939277613088
      ],
      [
        "▁breed",
        -10.178789906378949
      ],
      [
        "▁officiële",
        -10.179279565962153
      ],
      [
        "behalve",
        -10.180148304927126
      ],
      [
        "▁volk",
        -10.180603485792869
      ],
      [
        "▁technologie",
        -10.181708237298754
      ],
      [
        "▁volle",
        -10.182482392172952
      ],
      [
        "line",
        -10.182513953724731
      ],
      [
        "▁gesprekken",
        -10.18397364055926
      ],
      [
        "▁radio",
        -10.18419916583096
      ],
      [
        "ette",
        -10.184244786822529
      ],
      [
        "verloor",
        -10.184444154786222
      ],
      [
        "▁Lu",
        -10.185040483796248
      ],
      [
        "▁compleet",
        -10.185711443912965
      ],
      [
        "werken",
        -10.186090193680714
      ],
      [
        "▁herstel",
        -10.186353751434432
      ],
      [
        "trok",
        -10.18640694800535
      ],
      [
        "Terwijl",
        -10.186994154551387
      ],
      [
        "▁tekort",
        -10.18701297689282
      ],
      [
        "▁verwijderen",
        -10.18744257907876
      ],
      [
        "istische",
        -10.18810495418765
      ],
      [
        "▁privacy",
        -10.188757193554595
      ],
      [
        "▁gelegenheid",
        -10.188930835113736
      ],
      [
        "▁design",
        -10.189758767707788
      ],
      [
        "▁hoeveelheid",
        -10.190320488042335
      ],
      [
        "▁Dr",
        -10.1905954723104
      ],
      [
        "medische",
        -10.190696001264795
      ],
      [
        "even",
        -10.19140243737808
      ],
      [
        "veroordeeld",
        -10.191889957410114
      ],
      [
        "▁Ke",
        -10.19198514868654
      ],
      [
        "▁hoek",
        -10.19213143090596
      ],
      [
        "▁automatisch",
        -10.192492958586705
      ],
      [
        "▁overname",
        -10.192971788248048
      ],
      [
        "mon",
        -10.193751955751567
      ],
      [
        "specifieke",
        -10.19383236529996
      ],
      [
        "▁reageren",
        -10.19408119038758
      ],
      [
        "▁Feyenoord",
        -10.194437027308274
      ],
      [
        "stra",
        -10.194588626035983
      ],
      [
        "jarenlang",
        -10.194806072447976
      ],
      [
        "hout",
        -10.19535611892073
      ],
      [
        "▁val",
        -10.195588331399714
      ],
      [
        "▁David",
        -10.196403770873856
      ],
      [
        "▁Drie",
        -10.196787251376223
      ],
      [
        "ontvangt",
        -10.196848274545449
      ],
      [
        "ley",
        -10.197645236041565
      ],
      [
        "▁scherp",
        -10.197761261302928
      ],
      [
        "film",
        -10.198514549108712
      ],
      [
        "▁coalitie",
        -10.199533103557512
      ],
      [
        "▁gezond",
        -10.199697088481532
      ],
      [
        "|",
        -10.199956869931938
      ],
      [
        "▁zoekt",
        -10.20042239446438
      ],
      [
        "▁mate",
        -10.200818143217758
      ],
      [
        "gepubliceerd",
        -10.200943639313389
      ],
      [
        "▁Sport",
        -10.20114074961418
      ],
      [
        "▁blog",
        -10.201185179512946
      ],
      [
        "straks",
        -10.20134625822354
      ],
      [
        "▁werkzaamheden",
        -10.201453428703882
      ],
      [
        "gevuld",
        -10.202705025985722
      ],
      [
        "▁professionele",
        -10.20352660300464
      ],
      [
        "▁hond",
        -10.203718074954224
      ],
      [
        "▁initiatief",
        -10.203739380054092
      ],
      [
        "▁Grote",
        -10.203897580926617
      ],
      [
        "▁Even",
        -10.20397197939395
      ],
      [
        "▁pre",
        -10.20407892625947
      ],
      [
        "▁Mensen",
        -10.205063798253574
      ],
      [
        "▁trainer",
        -10.205125454530457
      ],
      [
        "▁wedstrijden",
        -10.206124470818828
      ],
      [
        "▁groepen",
        -10.206268378699743
      ],
      [
        "gebleven",
        -10.207060190629004
      ],
      [
        "▁onderhoud",
        -10.208654353038929
      ],
      [
        "doorgaan",
        -10.208894684040656
      ],
      [
        "sport",
        -10.210002407301486
      ],
      [
        "▁teken",
        -10.210728239835376
      ],
      [
        "wijst",
        -10.212909764079148
      ],
      [
        "▁vergelijking",
        -10.214048229295202
      ],
      [
        "▁artikelen",
        -10.214594962704911
      ],
      [
        "geregeld",
        -10.214672549059166
      ],
      [
        "betreffende",
        -10.21501951931615
      ],
      [
        "▁burger",
        -10.215183399408502
      ],
      [
        "waarde",
        -10.216018054210778
      ],
      [
        "▁Gi",
        -10.216578275237213
      ],
      [
        "▁Ba",
        -10.21704003734932
      ],
      [
        "▁iPhone",
        -10.217578650474442
      ],
      [
        "blad",
        -10.218681987362189
      ],
      [
        "▁ideeën",
        -10.2192934834466
      ],
      [
        "afkomstig",
        -10.220040212021132
      ],
      [
        "▁Maak",
        -10.221220799245891
      ],
      [
        "gemeld",
        -10.221249647769197
      ],
      [
        "▁Vandaag",
        -10.221305472613723
      ],
      [
        "helaa",
        -10.221346952442971
      ],
      [
        "▁korting",
        -10.221428794071992
      ],
      [
        "gebruik",
        -10.221550807583258
      ],
      [
        "#",
        -10.22218408437094
      ],
      [
        "▁ingezet",
        -10.222826815909338
      ],
      [
        "▁werking",
        -10.22283172050802
      ],
      [
        "▁spanning",
        -10.224090727693564
      ],
      [
        "▁middelen",
        -10.22416592613921
      ],
      [
        "▁Post",
        -10.224635958710651
      ],
      [
        "▁Centraal",
        -10.224908964274956
      ],
      [
        "▁instellingen",
        -10.225851362386026
      ],
      [
        "▁vooraf",
        -10.226452402235402
      ],
      [
        "▁Amerikanen",
        -10.226879010549686
      ],
      [
        "▁bos",
        -10.227310128649114
      ],
      [
        "gevolgd",
        -10.228109948187328
      ],
      [
        "raakte",
        -10.22955971270823
      ],
      [
        "gedurende",
        -10.229575205223831
      ],
      [
        "▁bescherming",
        -10.230453739376166
      ],
      [
        "▁Car",
        -10.23183206537412
      ],
      [
        "waarvoor",
        -10.231988636425132
      ],
      [
        "▁Ad",
        -10.232087422110522
      ],
      [
        "▁spoor",
        -10.232297555271424
      ],
      [
        "▁Justitie",
        -10.232732190380307
      ],
      [
        "▁Beid",
        -10.233100765370772
      ],
      [
        "▁techniek",
        -10.233177837281334
      ],
      [
        "app",
        -10.234539729214893
      ],
      [
        "▁Hof",
        -10.235061018711612
      ],
      [
        "▁geweldig",
        -10.23512378271915
      ],
      [
        "▁zestig",
        -10.235201001974364
      ],
      [
        "ont",
        -10.235488280505994
      ],
      [
        "▁Cor",
        -10.235635185149697
      ],
      [
        "▁Vi",
        -10.237038354547789
      ],
      [
        "▁Iran",
        -10.237373568007774
      ],
      [
        "ontdekt",
        -10.23764949502785
      ],
      [
        "staatssecretaris",
        -10.23774380138708
      ],
      [
        "roepen",
        -10.237966488285952
      ],
      [
        "onderzocht",
        -10.238309217197669
      ],
      [
        "▁Tegen",
        -10.238459055635667
      ],
      [
        "leiding",
        -10.238735724808135
      ],
      [
        "▁sluit",
        -10.238768931930268
      ],
      [
        "▁vloer",
        -10.238802453452957
      ],
      [
        "▁voorstellen",
        -10.239077249025824
      ],
      [
        "zaak",
        -10.239108537720568
      ],
      [
        "▁zacht",
        -10.239547738492435
      ],
      [
        "hopen",
        -10.239684180794743
      ],
      [
        "▁Zelfs",
        -10.240274550470788
      ],
      [
        "▁groeien",
        -10.240291580634342
      ],
      [
        "▁tijdelijk",
        -10.240565674006485
      ],
      [
        "▁To",
        -10.241015054122322
      ],
      [
        "▁welkom",
        -10.241080605306776
      ],
      [
        "voornamelijk",
        -10.241422749368342
      ],
      [
        "lid",
        -10.241630897419538
      ],
      [
        "▁aanval",
        -10.242176067256914
      ],
      [
        "▁trots",
        -10.242592300757536
      ],
      [
        "▁afspraak",
        -10.24274214458212
      ],
      [
        "mar",
        -10.243034319606348
      ],
      [
        "▁vliegtuig",
        -10.244994427584304
      ],
      [
        "▁tips",
        -10.245674142304058
      ],
      [
        "▁kwart",
        -10.2457964614028
      ],
      [
        "▁koning",
        -10.245831747327248
      ],
      [
        "▁Engelse",
        -10.245966447636418
      ],
      [
        "baas",
        -10.246571092700547
      ],
      [
        "ting",
        -10.24790152504998
      ],
      [
        "daadwerkelijk",
        -10.248569070294444
      ],
      [
        "zover",
        -10.249468099361485
      ],
      [
        "BN",
        -10.249713986604752
      ],
      [
        "á",
        -10.24978185965651
      ],
      [
        "gedeeld",
        -10.250172838774978
      ],
      [
        "tro",
        -10.250506253836791
      ],
      [
        "▁Nieuwe",
        -10.250560263749811
      ],
      [
        "Vervolgen",
        -10.25072787018309
      ],
      [
        "bar",
        -10.250738763157548
      ],
      [
        "ius",
        -10.250905520003505
      ],
      [
        "Ondanks",
        -10.251991273351898
      ],
      [
        "▁jong",
        -10.252192057850609
      ],
      [
        "▁rood",
        -10.252671142626369
      ],
      [
        "▁centraal",
        -10.253532953286092
      ],
      [
        "▁boeren",
        -10.253898572184603
      ],
      [
        "▁winnaar",
        -10.25414904041614
      ],
      [
        "▁openbare",
        -10.254479274644524
      ],
      [
        "▁Uw",
        -10.25512280237302
      ],
      [
        "waar",
        -10.255173355859826
      ],
      [
        "▁dames",
        -10.2552437254694
      ],
      [
        "▁interessant",
        -10.255532020320985
      ],
      [
        "▁overwinning",
        -10.256319152742522
      ],
      [
        "club",
        -10.256911512642723
      ],
      [
        "kerk",
        -10.257113549350546
      ],
      [
        "▁Euro",
        -10.257314558923785
      ],
      [
        "▁marketing",
        -10.258269042843972
      ],
      [
        "▁aanslag",
        -10.25898785970341
      ],
      [
        "▁San",
        -10.26023153996449
      ],
      [
        "iële",
        -10.260302688020085
      ],
      [
        "ü",
        -10.26036059719967
      ],
      [
        "getoond",
        -10.260423423166507
      ],
      [
        "▁wens",
        -10.261602047177716
      ],
      [
        "▁nader",
        -10.261748998973424
      ],
      [
        "▁Hoog",
        -10.261834848626853
      ],
      [
        "aangekondigd",
        -10.261844528650226
      ],
      [
        "officieel",
        -10.2619209165216
      ],
      [
        "▁Denk",
        -10.262402035270016
      ],
      [
        "rol",
        -10.262503295594373
      ],
      [
        "▁kilo",
        -10.263049880402091
      ],
      [
        "▁verklaard",
        -10.263079778149
      ],
      [
        "▁Spelen",
        -10.263372051729013
      ],
      [
        "▁hoeven",
        -10.263422693717535
      ],
      [
        "daar",
        -10.263781380041722
      ],
      [
        "▁Ro",
        -10.264272091968452
      ],
      [
        "▁Zie",
        -10.264941515879077
      ],
      [
        "ium",
        -10.26524776785882
      ],
      [
        "▁groene",
        -10.265339211261548
      ],
      [
        "hoek",
        -10.26549731135935
      ],
      [
        "getroffen",
        -10.266397285212086
      ],
      [
        "gebeurd",
        -10.266569865220688
      ],
      [
        "vastgesteld",
        -10.267280011206315
      ],
      [
        "▁duizenden",
        -10.26737671135924
      ],
      [
        "burg",
        -10.267481866189696
      ],
      [
        "▁meisjes",
        -10.2676496754844
      ],
      [
        "▁India",
        -10.268007759505911
      ],
      [
        "vallen",
        -10.26842033108661
      ],
      [
        "▁Tom",
        -10.269334262986389
      ],
      [
        "▁Robert",
        -10.269492203323098
      ],
      [
        "▁competitie",
        -10.269513538957623
      ],
      [
        "▁taak",
        -10.26982909105969
      ],
      [
        "▁bodem",
        -10.270619536734715
      ],
      [
        "▁record",
        -10.270759810180346
      ],
      [
        "onvoldoende",
        -10.270864428233056
      ],
      [
        "▁geleid",
        -10.270890634209946
      ],
      [
        "▁ondersteuning",
        -10.271025950950602
      ],
      [
        "makers",
        -10.271859602996832
      ],
      [
        "gebeurde",
        -10.27223873647544
      ],
      [
        "▁interesse",
        -10.272661890374115
      ],
      [
        "▁gewone",
        -10.273029201432838
      ],
      [
        "pers",
        -10.273649680027516
      ],
      [
        "eindelijk",
        -10.27376084879682
      ],
      [
        "▁aangepast",
        -10.273934642084846
      ],
      [
        "▁Sp",
        -10.274082002636815
      ],
      [
        "▁categorie",
        -10.274143441190118
      ],
      [
        "▁natuurlijke",
        -10.274934658721335
      ],
      [
        "industrie",
        -10.275294032592894
      ],
      [
        "▁Po",
        -10.276277308982614
      ],
      [
        "haalt",
        -10.276511169967906
      ],
      [
        "punten",
        -10.277304064483593
      ],
      [
        "▁bod",
        -10.277535022253922
      ],
      [
        "▁middag",
        -10.277910649097416
      ],
      [
        "▁internationaal",
        -10.278370303663577
      ],
      [
        "hiervan",
        -10.278374072698268
      ],
      [
        "▁bron",
        -10.278595426412029
      ],
      [
        "staande",
        -10.278754683440948
      ],
      [
        "▁financieel",
        -10.2788258967428
      ],
      [
        "kiest",
        -10.278894520874273
      ],
      [
        "ong",
        -10.279104533801886
      ],
      [
        "▁drinken",
        -10.28052464782586
      ],
      [
        "▁www",
        -10.28091234182835
      ],
      [
        "▁militairen",
        -10.281271553712417
      ],
      [
        "organiseren",
        -10.28174068386302
      ],
      [
        "▁verboden",
        -10.282097170232715
      ],
      [
        "▁belangen",
        -10.28220879718968
      ],
      [
        "▁festival",
        -10.2824107872463
      ],
      [
        "▁trap",
        -10.282954656578756
      ],
      [
        "▁traditionele",
        -10.283091440571656
      ],
      [
        "▁podium",
        -10.28309219532364
      ],
      [
        "▁carrière",
        -10.283225272086694
      ],
      [
        "▁pers",
        -10.283492661247545
      ],
      [
        "positie",
        -10.283771887501343
      ],
      [
        "▁Engeland",
        -10.283843648553509
      ],
      [
        "onderhandelingen",
        -10.283997473501746
      ],
      [
        "▁Online",
        -10.284151831810794
      ],
      [
        "▁bezoeken",
        -10.284329201061375
      ],
      [
        "▁werkelijkheid",
        -10.285046746961411
      ],
      [
        "lan",
        -10.285216292141024
      ],
      [
        "ney",
        -10.285450393671187
      ],
      [
        "geleverd",
        -10.285653629945417
      ],
      [
        "binnenkort",
        -10.286338373385574
      ],
      [
        "deel",
        -10.28696331436698
      ],
      [
        "▁georganiseerd",
        -10.287115616400252
      ],
      [
        "maat",
        -10.28847564839865
      ],
      [
        "▁Sint",
        -10.289131120775206
      ],
      [
        "▁voel",
        -10.289146290931631
      ],
      [
        "stellen",
        -10.289484181017452
      ],
      [
        "lon",
        -10.289949988194625
      ],
      [
        "▁ontwikkelingen",
        -10.290283827291791
      ],
      [
        "▁con",
        -10.29037071028374
      ],
      [
        "eventueel",
        -10.291472339148436
      ],
      [
        "▁Frank",
        -10.29147317374882
      ],
      [
        "▁zette",
        -10.291682791501636
      ],
      [
        "▁stichting",
        -10.292626538423455
      ],
      [
        "▁theater",
        -10.29281941679133
      ],
      [
        "gekeken",
        -10.293318438230196
      ],
      [
        "▁Obama",
        -10.294228729264637
      ],
      [
        "breekt",
        -10.29458433474211
      ],
      [
        "▁rekenen",
        -10.294864848921163
      ],
      [
        "▁Buitenlands",
        -10.294959875844995
      ],
      [
        "serie",
        -10.295451854474935
      ],
      [
        "iets",
        -10.295454650582473
      ],
      [
        "ö",
        -10.295888901856433
      ],
      [
        "▁bureau",
        -10.296741820023133
      ],
      [
        "▁Microsoft",
        -10.296913755013742
      ],
      [
        "▁OM",
        -10.297040382332124
      ],
      [
        "▁handels",
        -10.298114461086302
      ],
      [
        "▁Alles",
        -10.298210782772944
      ],
      [
        "▁uitdaging",
        -10.29869485270438
      ],
      [
        "gegevens",
        -10.298783255246942
      ],
      [
        "▁seks",
        -10.298846051399677
      ],
      [
        "▁behoorlijk",
        -10.298874513240944
      ],
      [
        "gedwongen",
        -10.299370769191764
      ],
      [
        "▁Ri",
        -10.299620150723896
      ],
      [
        "vonden",
        -10.299695536494609
      ],
      [
        "▁budget",
        -10.300871568084434
      ],
      [
        "▁behandeld",
        -10.301143261629878
      ],
      [
        "port",
        -10.301226316489153
      ],
      [
        "▁route",
        -10.301634721348682
      ],
      [
        "aak",
        -10.301712220707202
      ],
      [
        "afgesloten",
        -10.302231601688227
      ],
      [
        "▁historische",
        -10.302558856381388
      ],
      [
        "▁Ki",
        -10.302836394265626
      ],
      [
        "▁Midden",
        -10.302894382511996
      ],
      [
        "Korea",
        -10.303261086864415
      ],
      [
        "▁beleggers",
        -10.303862251611232
      ],
      [
        "▁etc",
        -10.30435435526275
      ],
      [
        "▁zogeheten",
        -10.304446276509738
      ],
      [
        "▁geopend",
        -10.305108027938578
      ],
      [
        "destijds",
        -10.305504315426766
      ],
      [
        "▁rechten",
        -10.306467821143931
      ],
      [
        "▁rand",
        -10.30682200668205
      ],
      [
        "▁stads",
        -10.306992214887655
      ],
      [
        "prijzen",
        -10.30716808663807
      ],
      [
        "q",
        -10.307534649253649
      ],
      [
        "aangehouden",
        -10.307886854088546
      ],
      [
        "▁zwembad",
        -10.30805901766318
      ],
      [
        "test",
        -10.308469748963246
      ],
      [
        "▁toegevoegd",
        -10.308589427278182
      ],
      [
        "▁oorzaak",
        -10.309518960918782
      ],
      [
        "▁geboorte",
        -10.309840457464423
      ],
      [
        "druk",
        -10.309935617704658
      ],
      [
        "▁editie",
        -10.310679329830265
      ],
      [
        "▁verricht",
        -10.310731991985255
      ],
      [
        "▁II",
        -10.311496337288036
      ],
      [
        "▁vet",
        -10.312452197443177
      ],
      [
        "han",
        -10.313778719396064
      ],
      [
        "▁kust",
        -10.31431511012508
      ],
      [
        "ieve",
        -10.314449006138709
      ],
      [
        "acht",
        -10.314468021386771
      ],
      [
        "▁nabij",
        -10.314604966811304
      ],
      [
        "▁tachtig",
        -10.315212070865508
      ],
      [
        "gerekend",
        -10.31537031884291
      ],
      [
        "▁behulp",
        -10.315661960775053
      ],
      [
        "▁geleverd",
        -10.31570100982984
      ],
      [
        "▁duurzame",
        -10.316242803000687
      ],
      [
        "▁werkgever",
        -10.316430417079696
      ],
      [
        "elen",
        -10.316607241427908
      ],
      [
        "▁Berg",
        -10.317642399731945
      ],
      [
        "diensten",
        -10.317680508454323
      ],
      [
        "▁lagere",
        -10.317876486528316
      ],
      [
        "▁aller",
        -10.3186816856128
      ],
      [
        "▁gewicht",
        -10.319057886738443
      ],
      [
        "▁ernstig",
        -10.319258631680324
      ],
      [
        "▁muur",
        -10.319627184462984
      ],
      [
        "▁werkgevers",
        -10.319676718479489
      ],
      [
        "▁co",
        -10.320699277942795
      ],
      [
        "▁Michael",
        -10.320721737037443
      ],
      [
        "▁ontbijt",
        -10.320975712351313
      ],
      [
        "▁erbij",
        -10.321439771978284
      ],
      [
        "▁concept",
        -10.321518843780323
      ],
      [
        "▁draaien",
        -10.321571483717983
      ],
      [
        "matig",
        -10.321645716039557
      ],
      [
        "stel",
        -10.322054745727575
      ],
      [
        "ach",
        -10.322705232000237
      ],
      [
        "▁beschermen",
        -10.322799331360658
      ],
      [
        "▁voren",
        -10.322979282703791
      ],
      [
        "▁elf",
        -10.323042309797398
      ],
      [
        "▁overige",
        -10.323070053326678
      ],
      [
        "▁geluk",
        -10.324784430875535
      ],
      [
        "TM",
        -10.324972878515354
      ],
      [
        "▁ontvang",
        -10.326555364537288
      ],
      [
        "stuk",
        -10.3270427970187
      ],
      [
        "▁richt",
        -10.327150906109148
      ],
      [
        "▁conclusie",
        -10.328224071232388
      ],
      [
        "vorm",
        -10.328246938795807
      ],
      [
        "fase",
        -10.328953872893283
      ],
      [
        "verschenen",
        -10.329760552191896
      ],
      [
        "▁Super",
        -10.330330104431855
      ],
      [
        "▁gezellig",
        -10.330421414708708
      ],
      [
        "bb",
        -10.330575899786968
      ],
      [
        "▁alcohol",
        -10.331190403623934
      ],
      [
        "▁reacties",
        -10.331730127847896
      ],
      [
        "gevestigd",
        -10.331744365989367
      ],
      [
        "▁City",
        -10.331907329361222
      ],
      [
        "kel",
        -10.331943757405735
      ],
      [
        "zame",
        -10.332610886659696
      ],
      [
        "▁stukje",
        -10.332716866391666
      ],
      [
        "▁slaap",
        -10.33372011436214
      ],
      [
        "▁beoordelingen",
        -10.33395509918652
      ],
      [
        "Welke",
        -10.334392115254287
      ],
      [
        "_",
        -10.335164733733333
      ],
      [
        "▁broer",
        -10.335380549841863
      ],
      [
        "proces",
        -10.335736791624758
      ],
      [
        "▁details",
        -10.335759272839182
      ],
      [
        "gelopen",
        -10.335953157877244
      ],
      [
        "▁temperatuur",
        -10.336323125727636
      ],
      [
        "gestemd",
        -10.336488083100006
      ],
      [
        "▁Zeker",
        -10.336490077872964
      ],
      [
        "▁welk",
        -10.33705296934065
      ],
      [
        "zet",
        -10.337763622384854
      ],
      [
        "pro",
        -10.337786625143822
      ],
      [
        "▁rijk",
        -10.338860571786912
      ],
      [
        "▁ontstaa",
        -10.33909934364336
      ],
      [
        "▁Windows",
        -10.33964068612464
      ],
      [
        "slotte",
        -10.341463318988184
      ],
      [
        "▁blik",
        -10.342112796513952
      ],
      [
        "Dit",
        -10.342970773000426
      ],
      [
        "▁pad",
        -10.34300626824099
      ],
      [
        "▁boodschap",
        -10.343058523904782
      ],
      [
        "▁verdw",
        -10.344801633259909
      ],
      [
        "▁woont",
        -10.34549628531806
      ],
      [
        "ung",
        -10.345680821873293
      ],
      [
        "▁principe",
        -10.346293975899249
      ],
      [
        "▁wacht",
        -10.34724595032931
      ],
      [
        "▁planten",
        -10.347917075719138
      ],
      [
        "▁droog",
        -10.348476357260848
      ],
      [
        "reeds",
        -10.348921079946344
      ],
      [
        "▁race",
        -10.34908952110402
      ],
      [
        "kers",
        -10.34927729304522
      ],
      [
        "▁betaalt",
        -10.349755971020285
      ],
      [
        "▁park",
        -10.34992468538158
      ],
      [
        "lijke",
        -10.350010308063132
      ],
      [
        "dagen",
        -10.350514213476735
      ],
      [
        "▁kansen",
        -10.350564970207124
      ],
      [
        "organisaties",
        -10.350665919624689
      ],
      [
        "▁conflict",
        -10.350696660925031
      ],
      [
        "▁trekt",
        -10.350702101290633
      ],
      [
        "▁concert",
        -10.351014711548322
      ],
      [
        "mann",
        -10.351203543587523
      ],
      [
        "▁Eerste",
        -10.35123638758252
      ],
      [
        "volgde",
        -10.35150157001688
      ],
      [
        "▁kies",
        -10.351807941172485
      ],
      [
        "▁verbinding",
        -10.352472181720785
      ],
      [
        "duren",
        -10.352635472989284
      ],
      [
        "▁boete",
        -10.353308719893077
      ],
      [
        "gehouden",
        -10.353441053482976
      ],
      [
        "gesloten",
        -10.353878396249431
      ],
      [
        "low",
        -10.3540893463216
      ],
      [
        "▁lezers",
        -10.35438531610486
      ],
      [
        "erin",
        -10.354528119009451
      ],
      [
        "▁ervaringen",
        -10.35460648352074
      ],
      [
        "▁redelijk",
        -10.354966674923997
      ],
      [
        "▁voormalig",
        -10.355445155717048
      ],
      [
        "Nadat",
        -10.355656704473718
      ],
      [
        "▁toestel",
        -10.355690684407122
      ],
      [
        "▁account",
        -10.356763499886576
      ],
      [
        "▁klassieke",
        -10.356801860135723
      ],
      [
        "▁aanzienlijk",
        -10.3570482721776
      ],
      [
        "▁zorgde",
        -10.357664089503734
      ],
      [
        "tor",
        -10.35773768620645
      ],
      [
        "spelen",
        -10.35816130824819
      ],
      [
        "▁vóór",
        -10.358270966022385
      ],
      [
        "Wij",
        -10.358282825887857
      ],
      [
        "vertelde",
        -10.358334589174794
      ],
      [
        "▁ontmoet",
        -10.358571516704346
      ],
      [
        "▁overheids",
        -10.358714507098396
      ],
      [
        "▁generatie",
        -10.358846789723485
      ],
      [
        "▁openen",
        -10.359466903571995
      ],
      [
        "▁behoor",
        -10.359735732613254
      ],
      [
        "commissie",
        -10.361027497335929
      ],
      [
        "▁industrie",
        -10.361287280241676
      ],
      [
        "igheid",
        -10.36201544289864
      ],
      [
        "bak",
        -10.362220938760723
      ],
      [
        "▁vijfde",
        -10.362280155804749
      ],
      [
        "▁Air",
        -10.362504649793484
      ],
      [
        "▁universiteit",
        -10.362838180553704
      ],
      [
        "producten",
        -10.363142339792018
      ],
      [
        "▁coach",
        -10.363308535329438
      ],
      [
        "▁veertig",
        -10.363340505560432
      ],
      [
        "▁elektrische",
        -10.363609387905994
      ],
      [
        "▁websites",
        -10.363852135420595
      ],
      [
        "▁Land",
        -10.365440550766026
      ],
      [
        "tas",
        -10.365515559606177
      ],
      [
        "▁fietsen",
        -10.36609392069125
      ],
      [
        "▁Wi",
        -10.366508783816496
      ],
      [
        "telt",
        -10.366680582017016
      ],
      [
        "▁betekenis",
        -10.367698961209651
      ],
      [
        "vereniging",
        -10.369392100665724
      ],
      [
        "liswaar",
        -10.36957031511135
      ],
      [
        "▁World",
        -10.369654237374546
      ],
      [
        "▁loon",
        -10.369999699478102
      ],
      [
        "▁onduidelijk",
        -10.370150922299732
      ],
      [
        "▁pop",
        -10.37016482454706
      ],
      [
        "▁Eén",
        -10.370881447664718
      ],
      [
        "▁Zonder",
        -10.370950964510827
      ],
      [
        "vrij",
        -10.371169741213064
      ],
      [
        "▁Griekenland",
        -10.3713686925321
      ],
      [
        "▁aard",
        -10.371771270048717
      ],
      [
        "creëren",
        -10.371953984289394
      ],
      [
        "▁seconden",
        -10.372018585734008
      ],
      [
        "ity",
        -10.37247143769986
      ],
      [
        "▁patiënt",
        -10.372720818409515
      ],
      [
        "▁onmogelijk",
        -10.372898848965615
      ],
      [
        "▁Da",
        -10.374476017628336
      ],
      [
        "kondigde",
        -10.374527573459552
      ],
      [
        "spraak",
        -10.374736827698973
      ],
      [
        "ang",
        -10.375580738467658
      ],
      [
        "▁kandidaat",
        -10.375896327502844
      ],
      [
        "achtig",
        -10.376087568452252
      ],
      [
        "▁individuele",
        -10.37659551137864
      ],
      [
        "▁schaal",
        -10.376603782743285
      ],
      [
        "▁herinner",
        -10.376633171641071
      ],
      [
        "▁bronnen",
        -10.377476048061345
      ],
      [
        "directeur",
        -10.377514455075008
      ],
      [
        "▁Zelf",
        -10.377810507072398
      ],
      [
        "lie",
        -10.37807429689087
      ],
      [
        "log",
        -10.378094057136757
      ],
      [
        "▁oppositie",
        -10.3781552434228
      ],
      [
        "president",
        -10.378269293249122
      ],
      [
        "▁besef",
        -10.378824848126827
      ],
      [
        "▁vormt",
        -10.378913977501233
      ],
      [
        "culturele",
        -10.379210835660974
      ],
      [
        "kwam",
        -10.379437529393584
      ],
      [
        "▁begrijp",
        -10.379963376564726
      ],
      [
        "ans",
        -10.381184544051424
      ],
      [
        "pakket",
        -10.381409474620636
      ],
      [
        "▁bar",
        -10.38164866150843
      ],
      [
        "▁rechtstreeks",
        -10.381768232594707
      ],
      [
        "rum",
        -10.38199614355275
      ],
      [
        "niveau",
        -10.382352669416242
      ],
      [
        "mooiste",
        -10.382373775252123
      ],
      [
        "▁instantie",
        -10.382464793348868
      ],
      [
        "vers",
        -10.382526519075505
      ],
      [
        "gedaan",
        -10.382825292492004
      ],
      [
        "▁Top",
        -10.38321831199412
      ],
      [
        "▁gast",
        -10.383793252733785
      ],
      [
        "▁Holland",
        -10.383893641734018
      ],
      [
        "legde",
        -10.384057305727296
      ],
      [
        "▁mode",
        -10.384229047087768
      ],
      [
        "▁huwelijk",
        -10.384498782280534
      ],
      [
        "▁stijging",
        -10.384513681461394
      ],
      [
        "pagina",
        -10.384622084070996
      ],
      [
        "Kamerlid",
        -10.384785780225844
      ],
      [
        "lin",
        -10.38543632515766
      ],
      [
        "▁redactie",
        -10.38605400622755
      ],
      [
        "▁Pu",
        -10.386513296304155
      ],
      [
        "▁appartement",
        -10.387992004063715
      ],
      [
        "▁link",
        -10.3884989864232
      ],
      [
        "los",
        -10.388545824584142
      ],
      [
        "▁duizend",
        -10.38856389541364
      ],
      [
        "▁sneeuw",
        -10.388654728977263
      ],
      [
        "▁voordelen",
        -10.389209339013473
      ],
      [
        "macht",
        -10.389215450683626
      ],
      [
        "▁show",
        -10.389308393962772
      ],
      [
        "oren",
        -10.389423205221137
      ],
      [
        "droeg",
        -10.38945847528065
      ],
      [
        "▁prettig",
        -10.39056902658085
      ],
      [
        "▁zeg",
        -10.390670271330722
      ],
      [
        "▁qua",
        -10.390946997190492
      ],
      [
        "▁Let",
        -10.3913613462372
      ],
      [
        "▁Doe",
        -10.391677376682516
      ],
      [
        "stijgen",
        -10.392773087916147
      ],
      [
        "▁onmiddellijk",
        -10.392812564861796
      ],
      [
        "▁Gelukkig",
        -10.392960601944711
      ],
      [
        "▁aflevering",
        -10.39301787754144
      ],
      [
        "sma",
        -10.39312532322803
      ],
      [
        "bevestigd",
        -10.39321870918846
      ],
      [
        "▁Schiphol",
        -10.393534743456057
      ],
      [
        "▁populaire",
        -10.393665434621598
      ],
      [
        "▁verdachten",
        -10.393696543285705
      ],
      [
        "eindigde",
        -10.393697748391448
      ],
      [
        "▁Ed",
        -10.395079354560249
      ],
      [
        "lic",
        -10.39538844421457
      ],
      [
        "▁voorbereiding",
        -10.395810316770037
      ],
      [
        "zeer",
        -10.39607217633194
      ],
      [
        "basis",
        -10.39709621341861
      ],
      [
        "gehoord",
        -10.397518095147566
      ],
      [
        "▁verdieping",
        -10.399095311583512
      ],
      [
        "beloof",
        -10.399707227624962
      ],
      [
        "ving",
        -10.4005709227524
      ],
      [
        "▁draagt",
        -10.402252828288397
      ],
      [
        "gebouw",
        -10.402257190061238
      ],
      [
        "slaat",
        -10.403253278435644
      ],
      [
        "▁langzaam",
        -10.403962952136082
      ],
      [
        "▁zeventig",
        -10.404223770512278
      ],
      [
        "▁gewond",
        -10.404309788898995
      ],
      [
        "▁werkelijk",
        -10.405406347737598
      ],
      [
        "Iedereen",
        -10.40546898176958
      ],
      [
        "▁stel",
        -10.405529657070865
      ],
      [
        "▁geest",
        -10.40578032023439
      ],
      [
        "▁vertegenwoordig",
        -10.40616104470779
      ],
      [
        "eens",
        -10.406225939560636
      ],
      [
        "kende",
        -10.40671158670212
      ],
      [
        "▁verzet",
        -10.406808241237483
      ],
      [
        "RTL",
        -10.407761922142608
      ],
      [
        "wedstrijd",
        -10.40794602631581
      ],
      [
        "middel",
        -10.408211255983613
      ],
      [
        "▁toernooi",
        -10.408643712053552
      ],
      [
        "ruime",
        -10.409678848091254
      ],
      [
        "▁terras",
        -10.410063795644062
      ],
      [
        "voelde",
        -10.410071588257283
      ],
      [
        "▁uitzondering",
        -10.41039256795288
      ],
      [
        "▁mail",
        -10.410687296394464
      ],
      [
        "▁Or",
        -10.411099928557183
      ],
      [
        "▁begeleid",
        -10.411257491859368
      ],
      [
        "vent",
        -10.411302037701851
      ],
      [
        "▁bak",
        -10.411652960928585
      ],
      [
        "▁warme",
        -10.411670230565605
      ],
      [
        "els",
        -10.411767577902
      ],
      [
        "▁materialen",
        -10.411821946951576
      ],
      [
        "zocht",
        -10.412488308615965
      ],
      [
        "▁serieus",
        -10.412703428408484
      ],
      [
        "▁inkomen",
        -10.41288401850443
      ],
      [
        "vragen",
        -10.413440673134518
      ],
      [
        "opgericht",
        -10.41526419556096
      ],
      [
        "▁fruit",
        -10.415624013067324
      ],
      [
        "▁droom",
        -10.416144991973322
      ],
      [
        "▁hoef",
        -10.4162119292093
      ],
      [
        "daalde",
        -10.416260164998713
      ],
      [
        "▁snelheid",
        -10.416261553320291
      ],
      [
        "▁verbetering",
        -10.416731443506954
      ],
      [
        "tocht",
        -10.417221036939
      ],
      [
        "▁persbureau",
        -10.417808896599787
      ],
      [
        "▁vergelijken",
        -10.418356984499964
      ],
      [
        "▁wapen",
        -10.418447611493235
      ],
      [
        "komende",
        -10.41850820319387
      ],
      [
        "geloven",
        -10.41875960406614
      ],
      [
        "▁leeg",
        -10.419280959001345
      ],
      [
        "▁aanvraag",
        -10.41929230436929
      ],
      [
        "▁toezicht",
        -10.419403567472624
      ],
      [
        "stroom",
        -10.420158942212376
      ],
      [
        "verschijnen",
        -10.420981585519607
      ],
      [
        "▁beneden",
        -10.421144512522156
      ],
      [
        "▁Q",
        -10.42179542528898
      ],
      [
        "roept",
        -10.422532946090133
      ],
      [
        "actie",
        -10.422874503477177
      ],
      [
        "▁Washington",
        -10.422990263835628
      ],
      [
        "lidstaten",
        -10.423454161483464
      ],
      [
        "▁behouden",
        -10.423561540517849
      ],
      [
        "veel",
        -10.423764242341374
      ],
      [
        "▁laatst",
        -10.42399716779934
      ],
      [
        "blijken",
        -10.424438251027002
      ],
      [
        "voorsprong",
        -10.424449149256292
      ],
      [
        "▁houten",
        -10.424562706038808
      ],
      [
        "besteed",
        -10.424923812120475
      ],
      [
        "▁agenten",
        -10.425216475210837
      ],
      [
        "▁Boer",
        -10.426828247788173
      ],
      [
        "code",
        -10.426983805353151
      ],
      [
        "dijk",
        -10.427067331999355
      ],
      [
        "vis",
        -10.42717396739992
      ],
      [
        "▁Breda",
        -10.42753613190732
      ],
      [
        "▁bier",
        -10.42820808131938
      ],
      [
        "▁modellen",
        -10.4283857689425
      ],
      [
        "▁tegelijk",
        -10.428835484538904
      ],
      [
        "▁Philips",
        -10.430132396814678
      ],
      [
        "▁grenzen",
        -10.430548044709097
      ],
      [
        "▁goedkoper",
        -10.430607893021032
      ],
      [
        "aars",
        -10.43105021389067
      ],
      [
        "▁begrip",
        -10.431791474394188
      ],
      [
        "her",
        -10.43198677376028
      ],
      [
        "▁NS",
        -10.43213516457591
      ],
      [
        "▁uiterlijk",
        -10.432177021095471
      ],
      [
        "ploeg",
        -10.432498598303088
      ],
      [
        "▁Auto",
        -10.432599369643912
      ],
      [
        "▁Klik",
        -10.432756571943925
      ],
      [
        "▁eerlijk",
        -10.432905996101695
      ],
      [
        "▁Bre",
        -10.432978946291971
      ],
      [
        "maatschappelijke",
        -10.433060445029549
      ],
      [
        "Mocht",
        -10.4336315822603
      ],
      [
        "mor",
        -10.433876479085049
      ],
      [
        "▁kampioen",
        -10.435044518813768
      ],
      [
        "post",
        -10.435313859024742
      ],
      [
        "voortdurend",
        -10.435830892520196
      ],
      [
        "concern",
        -10.436062800417922
      ],
      [
        "Ministerie",
        -10.436174942739406
      ],
      [
        "opnemen",
        -10.436354186260012
      ],
      [
        "▁Australië",
        -10.436423433762048
      ],
      [
        "▁feiten",
        -10.436469885964607
      ],
      [
        "▁knop",
        -10.436885565537466
      ],
      [
        "indsdien",
        -10.436886247708465
      ],
      [
        "▁platform",
        -10.43690850413948
      ],
      [
        "▁gaten",
        -10.437322374765676
      ],
      [
        "breken",
        -10.437567839569915
      ],
      [
        "▁nieuwste",
        -10.437646174459829
      ],
      [
        "▁arts",
        -10.437962145668903
      ],
      [
        ">",
        -10.438159540616414
      ],
      [
        "loop",
        -10.438849074784429
      ],
      [
        "by",
        -10.439304549129412
      ],
      [
        "ideale",
        -10.4396021714071
      ],
      [
        "▁oudere",
        -10.440056348316626
      ],
      [
        "▁dubbel",
        -10.440483512317902
      ],
      [
        "auto",
        -10.440790196535149
      ],
      [
        "trekken",
        -10.44079665646977
      ],
      [
        "▁miljoenen",
        -10.440805542576689
      ],
      [
        "ons",
        -10.441521026120467
      ],
      [
        "▁Red",
        -10.44270728845298
      ],
      [
        "isten",
        -10.442797636653667
      ],
      [
        "▁apparaat",
        -10.44295397437589
      ],
      [
        "▁verkrijgbaar",
        -10.442981658122443
      ],
      [
        "plicht",
        -10.443100517850796
      ],
      [
        "▁eruit",
        -10.443298890809974
      ],
      [
        "▁DEN",
        -10.443835732428822
      ],
      [
        "▁Leiden",
        -10.443858205974175
      ],
      [
        "ram",
        -10.443869246806656
      ],
      [
        "pas",
        -10.443981518255477
      ],
      [
        "LM",
        -10.44414178799464
      ],
      [
        "•",
        -10.44458356913238
      ],
      [
        "materiaal",
        -10.444587601970516
      ],
      [
        "▁bloemen",
        -10.444685159018295
      ],
      [
        "geroepen",
        -10.445135493296256
      ],
      [
        "▁stress",
        -10.445295304195447
      ],
      [
        "isatie",
        -10.445372049713407
      ],
      [
        "▁regisseur",
        -10.44539373282463
      ],
      [
        "▁Andere",
        -10.44608227708505
      ],
      [
        "verdwijnen",
        -10.446699198275132
      ],
      [
        "▁verdeeld",
        -10.446903673907537
      ],
      [
        "▁verslag",
        -10.447026904509558
      ],
      [
        "▁vereniging",
        -10.447484859018594
      ],
      [
        "ante",
        -10.447760303479818
      ],
      [
        "▁begeleiding",
        -10.44783116127422
      ],
      [
        "▁dagelijkse",
        -10.448008776830417
      ],
      [
        "▁douche",
        -10.448074074917676
      ],
      [
        "▁gezonde",
        -10.448952682415582
      ],
      [
        "The",
        -10.44918910178968
      ],
      [
        "▁landbouw",
        -10.449298615443809
      ],
      [
        "ham",
        -10.449440756198763
      ],
      [
        "▁luchtvaart",
        -10.449526670501054
      ],
      [
        "▁IS",
        -10.449938359691588
      ],
      [
        "bus",
        -10.451193950425504
      ],
      [
        "▁directe",
        -10.452161799162653
      ],
      [
        "▁Nederlander",
        -10.452470605883171
      ],
      [
        "drukken",
        -10.45395067547721
      ],
      [
        "▁Wilders",
        -10.453973216426249
      ],
      [
        "kracht",
        -10.454242370300534
      ],
      [
        "▁pakket",
        -10.454286987409905
      ],
      [
        "verwerkt",
        -10.45430453802594
      ],
      [
        "▁Art",
        -10.454773305728054
      ],
      [
        "periode",
        -10.455322841646106
      ],
      [
        "▁assortiment",
        -10.45606140941556
      ],
      [
        "▁ernstige",
        -10.457243874338328
      ],
      [
        "Dankzij",
[...]
